<unk>	0
<s>	0
</s>	0
▁.	-3.36356
▁,	-3.36908
▁i	-3.52671
▁og	-3.69778
e	-3.96395
▁av	-4.06388
▁som	-4.20968
▁en	-4.31083
s	-4.33273
▁til	-4.38652
▁	-4.49246
▁for	-4.55561
▁på	-4.59883
▁det	-4.60911
▁er	-4.68697
▁den	-4.69516
▁ble	-4.76226
▁med	-4.76942
▁å	-4.79711
▁var	-4.84558
▁de	-4.88323
▁(	-5.02257
▁at	-5.04393
▁)	-5.0556
.	-5.05691
t	-5.06545
er	-5.06964
▁''	-5.07796
-	-5.168
en	-5.22225
▁fra	-5.23559
r	-5.23758
▁et	-5.27167
''	-5.53304
▁han	-5.58239
▁har	-5.594
▁om	-5.6367
▁ikke	-5.75053
▁«	-5.77005
▁også	-5.81133
▁ved	-5.81235
▁»	-5.84497
▁men	-5.84653
▁seg	-5.8634
▁hadde	-5.86454
▁etter	-5.92667
et	-5.94231
▁eller	-6.02903
▁kan	-6.11367
▁dette	-6.16016
ene	-6.21561
▁da	-6.27965
▁andre	-6.29842
n	-6.31156
▁s	-6.39853
▁over	-6.40621
a	-6.42737
▁under	-6.44769
▁mot	-6.50211
ne	-6.53215
▁sin	-6.53264
▁ut	-6.53722
▁denne	-6.53735
▁første	-6.56735
▁to	-6.57421
▁mellom	-6.58818
▁opp	-6.74296
tallet	-6.74549
▁man	-6.74683
▁ha	-6.7506
▁år	-6.75704
▁hans	-6.78626
▁så	-6.80826
▁fikk	-6.81128
▁disse	-6.8143
▁flere	-6.81484
▁være	-6.83799
▁kunne	-6.84608
▁der	-6.87668
▁mange	-6.88027
▁inn	-6.88499
▁hvor	-6.88533
nde	-6.89978
▁mer	-6.91001
▁selv	-6.92133
▁noen	-6.95679
▁blant	-6.97339
▁kom	-6.98064
blitt	-6.98761
▁enn	-7.01145
▁alle	-7.04347
de	-7.04987
▁vil	-7.05014
▁noe	-7.09017
▁blir	-7.09801
▁skulle	-7.10608
▁store	-7.11784
▁–	-7.11956
▁før	-7.1317
▁norge	-7.13954
▁senere	-7.14824
▁samme	-7.219
▁slik	-7.2206
▁tre	-7.22527
▁del	-7.23524
▁stor	-7.24407
▁annet	-7.25157
▁gjennom	-7.25464
▁-	-7.26357
▁siden	-7.26647
▁;	-7.27524
▁mens	-7.2785
▁rundt	-7.28427
▁hun	-7.29632
▁f	-7.30284
▁vært	-7.32253
▁bare	-7.34447
▁sammen	-7.34695
▁sine	-7.34944
▁tid	-7.35652
▁både	-7.36011
▁nye	-7.36326
▁bli	-7.37732
▁få	-7.40207
▁når	-7.44105
i	-7.44476
▁skal	-7.46229
▁the	-7.46289
▁gikk	-7.46858
▁sitt	-7.47775
▁of	-7.4861
▁dem	-7.48775
ing	-7.50981
'	-7.51552
▁tilbake	-7.53675
▁tidligere	-7.54846
▁land	-7.54853
▁ofte	-7.55454
▁ville	-7.56936
▁kjent	-7.57807
▁dag	-7.58644
▁deres	-7.58839
o	-7.59306
▁hele	-7.60789
▁grunn	-7.62196
▁mest	-7.62283
▁"	-7.63322
▁norske	-7.65617
▁imidlertid	-7.6667
/	-7.66969
▁ham	-7.67651
▁mindre	-7.67661
▁ny	-7.67738
▁større	-7.685
▁side	-7.69498
▁gang	-7.7099
▁eksempel	-7.72745
▁tok	-7.73409
▁a	-7.74343
▁nå	-7.7531
▁nord	-7.75896
▁byen	-7.75963
▁siste	-7.7607
di	-7.76174
▁uten	-7.76201
▁derfor	-7.76489
▁{	-7.7682
▁ned	-7.77327
▁igjen	-7.79861
▁først	-7.81241
▁bruk	-7.8147
d	-7.81731
▁vanlig	-7.81955
▁måtte	-7.82059
▁000	-7.8334
vis	-7.83469
▁gjorde	-7.83608
kr	-7.83905
▁r	-7.84383
▁brukt	-7.85221
▁dermed	-7.85269
▁fram	-7.85673
▁usa	-7.86536
▁tillegg	-7.86712
y	-7.86913
c	-7.86953
▁finnes	-7.87544
▁her	-7.87592
▁landet	-7.8926
▁mye	-7.89985
▁alt	-7.90004
▁død	-7.90791
m	-7.90945
▁kalt	-7.91084
▁tiden	-7.91392
▁må	-7.91835
▁døde	-7.93438
▁begynte	-7.93638
▁%	-7.94269
▁norsk	-7.94612
▁m	-7.95004
▁annen	-7.95558
▁ca	-7.95875
▁ga	-7.96506
▁helt	-7.9658
▁hos	-7.96936
▁england	-7.97528
▁fire	-7.9753
▁frem	-7.98006
▁rekke	-7.98629
▁ta	-7.99045
▁mulig	-7.99236
us	-7.99309
▁særlig	-7.99457
ende	-7.99554
▁ulike	-7.99619
▁løpet	-8.0029
▁oslo	-8.00296
▁la	-8.00503
▁førte	-8.00942
▁kun	-8.015
▁vi	-8.02302
▁tatt	-8.02581
▁forhold	-8.02756
l	-8.04447
▁fleste	-8.05002
▁videre	-8.05321
▁ingen	-8.05747
▁svært	-8.05976
▁samtidig	-8.06672
–	-8.06772
▁hver	-8.07477
k	-8.08923
▁sør	-8.09342
▁slutten	-8.10178
▁sett	-8.10681
▁hvert	-8.11005
▁mai	-8.11071
▁tyske	-8.11072
▁brukes	-8.11692
▁navnet	-8.11876
▁form	-8.12141
▁n	-8.13486
▁navn	-8.14266
▁januar	-8.14422
▁deretter	-8.1486
▁u	-8.14905
▁and	-8.15047
▁se	-8.15378
▁største	-8.15468
▁gitt	-8.15821
▁frankrike	-8.15975
▁mars	-8.16402
▁p	-8.16745
▁b	-8.16938
▁satt	-8.17249
2	-8.17712
▁området	-8.18209
▁gi	-8.1825
p	-8.1833
▁deler	-8.18649
▁fortsatt	-8.1885
▁samt	-8.19923
g	-8.20726
▁begge	-8.21195
▁gamle	-8.21714
▁egen	-8.21903
▁2	-8.22736
▁langt	-8.2323
▁gir	-8.23693
▁tyskland	-8.23777
▁utviklet	-8.24159
▁europa	-8.2455
▁antall	-8.2483
▁e	-8.24878
▁bygget	-8.25061
▁kirke	-8.25187
▁året	-8.25391
▁april	-8.25478
▁krigen	-8.25576
▁grad	-8.26538
▁viktig	-8.26735
▁stort	-8.27211
▁verden	-8.27647
▁forskjellige	-8.27979
▁ligger	-8.28017
▁1.	-8.2811
▁gjort	-8.28612
▁juni	-8.28689
▁spesielt	-8.28952
▁sendt	-8.29006
▁d	-8.29201
▁like	-8.29315
▁tidlig	-8.29372
▁c	-8.29762
▁juli	-8.29823
▁oktober	-8.30469
▁innen	-8.31322
▁sverige	-8.315
allerede	-8.31932
▁august	-8.32092
▁si	-8.32192
▁1	-8.32295
h	-8.32363
▁perioden	-8.32471
▁opprinnelig	-8.32681
▁kongen	-8.32717
▁mennesker	-8.3379
b	-8.34693
▁kong	-8.34803
▁skrev	-8.35182
▁moderne	-8.35316
▁hennes	-8.36614
▁små	-8.36901
▁november	-8.36934
▁kommer	-8.37468
▁øst	-8.37948
ens	-8.38091
▁språk	-8.38248
▁10	-8.38279
▁støtte	-8.38288
este	-8.38404
▁ganger	-8.38442
▁storbritannia	-8.38591
▁new	-8.3864
▁februar	-8.38723
▁vest	-8.38799
▁vann	-8.38989
▁viser	-8.39189
årene	-8.39335
re	-8.39458
▁september	-8.39625
▁gresk	-8.39697
▁enkelte	-8.39756
▁danmark	-8.39887
▁holdt	-8.39919
▁folk	-8.40125
▁ettersom	-8.40197
▁}	-8.40986
følge	-8.41191
▁barn	-8.41319
▁desember	-8.41333
▁går	-8.41338
▁stedet	-8.42112
▁3	-8.42239
on	-8.42536
▁innenfor	-8.42583
▁basert	-8.42893
▁nytt	-8.43077
▁bestå	-8.43092
f	-8.43243
▁gjøre	-8.4369
▁kort	-8.43893
▁funnet	-8.44084
▁midt	-8.4428
▁hvis	-8.4518
▁kalles	-8.45549
▁født	-8.45783
▁arbeidet	-8.45902
▁km	-8.4607
▁hva	-8.46166
▁nok	-8.46235
▁by	-8.46236
▁ii	-8.46325
▁såkalt	-8.46613
▁omkring	-8.46964
uten	-8.47144
▁lang	-8.47478
▁sted	-8.47674
▁langs	-8.47847
▁fem	-8.47916
▁rett	-8.48217
▁godt	-8.487
▁årene	-8.49148
▁startet	-8.49574
an	-8.49703
▁gjør	-8.49793
▁meter	-8.50615
▁v	-8.50957
▁millioner	-8.50962
▁historie	-8.51032
▁sønn	-8.51195
▁per	-8.5132
▁får	-8.51364
▁høy	-8.51571
▁bak	-8.51945
▁verdenskrig	-8.52042
▁lite	-8.52098
▁omfatte	-8.52183
▁t	-8.53062
the	-8.53074
▁london	-8.53405
▁benyttet	-8.54053
▁britiske	-8.54278
▁tysk	-8.54509
▁utenfor	-8.54834
▁lag	-8.55015
▁john	-8.55046
▁gå	-8.55488
▁kjente	-8.55725
▁slike	-8.56169
)	-8.56492
▁al	-8.56567
▁egne	-8.57694
▁franske	-8.57958
v	-8.58133
så	-8.58211
▁konge	-8.58358
▁områder	-8.58482
le	-8.58609
▁politiske	-8.58781
▁begynnelsen	-8.58899
▁fortsatte	-8.59196
▁amerikanske	-8.59339
▁direkte	-8.59357
▁bestemt	-8.5975
▁liv	-8.59999
▁slutt	-8.60352
▁h	-8.60364
▁lå	-8.60405
▁gjerne	-8.60493
▁likevel	-8.60876
▁be	-8.61719
▁skrevet	-8.62333
▁hjelp	-8.62385
▁2008	-8.62496
▁lov	-8.62634
▁laget	-8.62766
▁inkludert	-8.62807
▁viste	-8.62814
▁kirken	-8.62898
▁&	-8.63208
▁j	-8.63232
te	-8.63252
▁2007	-8.63318
▁20	-8.63393
▁2006	-8.63694
hvordan	-8.63835
▁2010	-8.63868
▁k	-8.63888
▁romersk	-8.639
▁tross	-8.6432
▁komme	-8.64435
▁liten	-8.64463
▁kvinner	-8.64531
▁betydelig	-8.65516
▁4	-8.65776
▁».	-8.65894
▁mente	-8.66242
▁slaget	-8.66262
▁følge	-8.66636
▁dagens	-8.66677
▁nesten	-8.66737
▁2009	-8.66772
ia	-8.67283
▁engelsk	-8.67573
al	-8.67674
lot	-8.68111
▁meget	-8.68146
▁nær	-8.68531
ske	-8.68577
▁ti	-8.68792
▁bruke	-8.68865
▁dager	-8.68951
▁steder	-8.68968
▁menn	-8.69175
▁måte	-8.69236
▁fant	-8.69238
▁bedre	-8.69289
▁fått	-8.6953
▁2005	-8.70295
u	-8.70766
▁personer	-8.70954
▁in	-8.71072
▁hoved	-8.7115
▁ledet	-8.712
▁regjeringen	-8.71315
▁all	-8.72012
▁leder	-8.72473
▁makt	-8.72644
▁mål	-8.73386
▁aldri	-8.73863
land	-8.74306
▁l	-8.74447
▁stadig	-8.74456
▁europeisk	-8.74489
,	-8.74751
▁står	-8.75172
▁=	-8.75182
os	-8.75386
▁én	-8.75552
▁god	-8.75604
▁minst	-8.75634
▁kultur	-8.75947
no	-8.76047
▁angrep	-8.76151
▁forsøk	-8.7634
▁ett	-8.76359
▁hatt	-8.76654
▁neste	-8.76655
in	-8.76966
▁finne	-8.77087
▁fly	-8.77113
▁st	-8.772
▁hverandre	-8.77448
▁politisk	-8.77643
3	-8.77659
▁2011	-8.77749
▁italia	-8.77912
▁tilsvarende	-8.78202
1	-8.78253
▁norges	-8.78258
▁rike	-8.78479
▁100	-8.78551
tok	-8.78931
▁12	-8.78939
▁flyttet	-8.79038
▁lagt	-8.79068
▁karl	-8.791
▁samlet	-8.79191
▁knyttet	-8.79539
▁sa	-8.79539
▁ønsket	-8.79727
▁arbeid	-8.80024
▁eldre	-8.80104
▁heller	-8.80632
▁5	-8.80726
▁kontroll	-8.80776
side	-8.80842
▁tredje	-8.80914
▁fast	-8.81058
▁betydning	-8.81273
▁'	-8.81324
▁nødvendig	-8.81337
▁henne	-8.81398
um	-8.81604
▁york	-8.8171
▁høyere	-8.81885
▁g	-8.82254
▁reist	-8.82321
▁dersom	-8.8246
▁gruppe	-8.82505
▁mann	-8.82636
▁drept	-8.82812
▁bety	-8.83048
▁egypt	-8.83066
▁tar	-8.83091
▁felles	-8.83107
▁krig	-8.83115
▁kristne	-8.83337
▁du	-8.83394
▁forbindelse	-8.83397
▁medlemmer	-8.83475
▁musikk	-8.83499
▁befolkningen	-8.83953
▁hus	-8.84375
▁an	-8.85015
▁jorden	-8.85046
▁bygge	-8.85181
▁erstatte	-8.85185
▁lenger	-8.85298
▁energi	-8.85436
▁spiller	-8.85601
▁etablert	-8.85661
▁ser	-8.8568
▁vant	-8.85763
▁1800-	-8.85801
z	-8.85989
▁verdens	-8.86075
▁bergen	-8.86159
▁bruker	-8.86232
x	-8.86274
▁seks	-8.86593
▁engelske	-8.86802
▁sannsynlig	-8.8697
▁2012	-8.87017
▁30	-8.87026
▁[	-8.87046
j	-8.8708
▁skjedde	-8.87081
▁lenge	-8.87224
av	-8.87573
▁/	-8.87696
▁enkelt	-8.87874
▁opprettet	-8.87877
▁15	-8.87978
het	-8.88218
▁dess	-8.88454
▁roma	-8.8857
▁lokale	-8.88685
▁enten	-8.89909
▁hovedsakelig	-8.8994
▁2013	-8.90173
▁eget	-8.90442
▁6	-8.90587
▁skip	-8.90655
▁sterkt	-8.90742
▁omtrent	-8.90822
▁viktigste	-8.90844
▁via	-8.9152
▁lys	-8.92021
▁brukte	-8.92052
▁meste	-8.92658
▁dannet	-8.92658
▁åpnet	-8.92867
▁utgitt	-8.92975
▁mat	-8.93113
▁ytterligere	-8.93226
▁2000	-8.93487
la	-8.93703
▁w	-8.93851
▁kina	-8.93876
4	-8.93884
▁sto	-8.94127
▁plass	-8.94149
man	-8.94462
▁paris	-8.94701
▁far	-8.94821
▁rolle	-8.94928
▁fulgte	-8.95032
▁2014	-8.95044
▁nasjonal	-8.95353
▁selskapet	-8.95626
▁50	-8.95809
▁bok	-8.95845
▁delen	-8.95909
▁hevdet	-8.9614
▁resten	-8.9615
▁svenske	-8.96285
▁derimot	-8.9674
▁gud	-8.96752
▁russland	-8.97223
kanskje	-8.97419
▁økt	-8.97517
▁raskt	-8.97734
iske	-8.97919
▁vei	-8.97928
▁dyr	-8.98228
▁kommune	-8.98445
▁2004	-8.98523
▁fri	-8.98557
▁lange	-8.98681
▁nådd	-8.98984
▁holde	-8.99145
▁sikre	-8.99237
▁]	-8.99575
is	-8.99789
▁vanskelig	-8.99868
▁iii	-9.00279
▁par	-9.00335
▁katolske	-9.00659
▁regnes	-9.00693
▁gav	-9.00816
▁vist	-9.01146
▁\	-9.01428
▁william	-9.01889
▁besøkt	-9.02015
▁ord	-9.02746
▁film	-9.02823
▁hvilke	-9.02952
▁gjelder	-9.02999
▁krav	-9.03095
▁ordet	-9.03096
▁eldste	-9.03261
▁8	-9.03575
▁henhold	-9.03606
▁2.	-9.03691
▁gammel	-9.03786
na	-9.04287
▁bort	-9.04393
▁utvikling	-9.04398
▁sette	-9.04449
▁jøder	-9.0446
▁spilte	-9.04592
▁bygd	-9.046
▁kinesisk	-9.04766
▁tv	-9.0496
nes	-9.05
▁nordlige	-9.05205
▁utviklingen	-9.05266
▁skole	-9.05597
▁type	-9.05652
▁behov	-9.05881
▁14	-9.06075
ar	-9.06253
▁russisk	-9.06376
▁co	-9.06466
▁grupper	-9.06471
▁begrepet	-9.06527
▁skille	-9.06889
▁endret	-9.07013
▁von	-9.07388
▁alltid	-9.07705
son	-9.08295
▁2003	-9.08445
▁oppdaget	-9.08498
▁valgt	-9.08652
▁verk	-9.08785
▁inntil	-9.08962
▁periode	-9.09169
▁gode	-9.09195
▁internasjonale	-9.09221
▁spania	-9.09388
▁kunst	-9.09428
▁naturlig	-9.09533
▁italiensk	-9.09759
▁synes	-9.1001
lige	-9.10223
▁henrik	-9.10291
▁deltok	-9.10366
▁århundre	-9.10481
▁|	-9.10523
▁forsøkte	-9.10576
▁robert	-9.10709
▁lengre	-9.11244
▁klart	-9.11248
▁fransk	-9.11472
▁beste	-9.1168
▁økte	-9.12087
▁delvis	-9.1223
▁styre	-9.12443
▁indre	-9.12523
▁o	-9.12778
▁stand	-9.12815
▁kraft	-9.12854
▁kjøpt	-9.12856
▁3.	-9.13156
▁område	-9.13331
▁dro	-9.13523
▁typisk	-9.13524
▁livet	-9.13545
▁satte	-9.13916
▁elektrisk	-9.1398
▁40	-9.14028
▁militære	-9.14138
sk	-9.14145
▁klarte	-9.14252
▁gruppen	-9.14281
▁legge	-9.14408
▁økonomisk	-9.14458
▁staten	-9.14556
▁stein	-9.14586
▁øya	-9.14716
▁ni	-9.14725
▁hæren	-9.14728
▁2016	-9.14741
ton	-9.14797
▁danske	-9.14991
▁keiser	-9.15227
▁produsert	-9.15387
▁økonomiske	-9.15413
▁kamp	-9.15562
▁7	-9.15884
▁sovjetunionen	-9.15944
▁slo	-9.16232
▁gift	-9.16284
▁bevart	-9.16289
▁finner	-9.16397
▁styrker	-9.16411
▁litt	-9.16499
▁president	-9.16612
▁byer	-9.1667
▁sterk	-9.16789
▁person	-9.16823
berg	-9.16858
▁tradisjonell	-9.16924
▁litteratur	-9.16942
▁unge	-9.16944
▁2001	-9.16976
▁viktige	-9.1711
gående	-9.17152
▁utover	-9.17165
▁møte	-9.17289
▁redusert	-9.17329
▁støttet	-9.17345
▁25	-9.17499
w	-9.17514
▁valgte	-9.17546
▁miste	-9.17704
ed	-9.17733
▁trolig	-9.17756
▁valg	-9.17857
▁2015	-9.18172
▁produksjon	-9.1834
▁inneholder	-9.1856
▁reise	-9.18902
../	-9.19013
▁hær	-9.1902
▁christian	-9.19086
▁plassert	-9.19345
▁måneder	-9.19876
▁enda	-9.19911
▁india	-9.1992
▁mor	-9.20129
▁mener	-9.20159
eks	-9.20266
▁samfunnet	-9.20358
▁tilfeller	-9.20386
▁’	-9.20646
▁lavere	-9.20901
▁skjer	-9.21009
▁general	-9.21055
▁saken	-9.21335
▁2002	-9.21581
▁lik	-9.21874
▁forteller	-9.22179
▁thomas	-9.22291
▁historien	-9.22305
▁regjering	-9.22525
▁16	-9.22576
▁arter	-9.2266
ol	-9.22686
▁kommet	-9.22775
▁gjennomført	-9.22928
▁således	-9.22942
▁bevis	-9.23065
▁hjem	-9.23074
▁system	-9.2325
▁sørlige	-9.23273
▁prosent	-9.2331
ka	-9.23352
▁religiøse	-9.2344
▁rom	-9.2345
me	-9.23623
el	-9.23745
▁allierte	-9.23969
▁13	-9.23978
▁sentral	-9.23994
▁våpen	-9.24078
▁riket	-9.2409
mann	-9.24173
▁middelalderen	-9.24211
▁vise	-9.24442
▁stortinget	-9.24664
▁resultat	-9.24831
▁soldater	-9.24865
▁betrakte	-9.24892
▁tro	-9.2527
▁trekke	-9.25406
▁200	-9.25465
▁ishockey	-9.25471
▁høyre	-9.25506
▁1945	-9.25726
stad	-9.25742
▁medlem	-9.25786
▁opprør	-9.25807
▁17.	-9.25888
▁myndighetene	-9.25898
▁kilder	-9.25926
▁israel	-9.25954
by	-9.26066
▁dagen	-9.26082
▁forskning	-9.26206
▁fører	-9.26428
▁praksis	-9.26493
▁grensen	-9.26496
▁bakgrunn	-9.26543
▁lett	-9.26667
▁østerrike	-9.26682
▁vestlige	-9.26719
▁sier	-9.26732
▁vekt	-9.2702
▁stod	-9.27117
6	-9.27179
▁9	-9.27328
▁skottland	-9.27526
▁partiet	-9.27567
▁feil	-9.27574
▁trondheim	-9.27629
▁problemer	-9.27762
▁drift	-9.2785
▁slått	-9.27914
▁innflytelse	-9.28135
▁sentrale	-9.28164
▁4.	-9.28299
▁falt	-9.28378
▁avhengig	-9.28419
▁områdene	-9.28422
▁innført	-9.28425
▁levert	-9.28493
▁møtte	-9.28667
▁endelig	-9.28758
dal	-9.28991
▁styrke	-9.29176
▁fremdeles	-9.29317
▁18	-9.29389
▁militær	-9.29483
▁regel	-9.29897
▁trakk	-9.29932
▁samarbeid	-9.30098
▁art	-9.30118
▁endringer	-9.30241
▁personlig	-9.3043
▁normalt	-9.30476
▁faktisk	-9.30507
▁x	-9.30574
▁utgangspunkt	-9.30587
▁dårlig	-9.30599
▁latin	-9.30675
▁500	-9.30714
▁boken	-9.30735
▁offentlig	-9.30804
▁11	-9.30875
▁preget	-9.30906
▁sk	-9.30938
▁spesiell	-9.30978
▁ført	-9.31472
▁1999	-9.31477
▁eksempelvis	-9.3149
▁vanlige	-9.31788
▁kontakt	-9.31807
▁le	-9.31884
▁samfunn	-9.31941
▁parti	-9.3196
▁delt	-9.32354
▁generelt	-9.32425
▁mm	-9.32432
▁mengde	-9.32623
▁60	-9.33102
▁informasjon	-9.33218
▁sommeren	-9.33329
▁fall	-9.3338
▁strøm	-9.33587
▁kraftig	-9.33895
▁data	-9.34058
▁jord	-9.34064
(	-9.34123
▁nr	-9.34151
▁ferdig	-9.34226
▁benytte	-9.34359
▁offentlige	-9.34544
▁publisert	-9.34646
▁6.	-9.34688
▁fordel	-9.34858
▁familie	-9.34934
▁gull	-9.35078
▁overfor	-9.35131
▁verket	-9.35223
▁tittelen	-9.35302
▁etablerte	-9.35431
▁drev	-9.35702
▁selve	-9.35703
▁retning	-9.35917
▁overtok	-9.36014
▁antagelig	-9.36057
▁15.	-9.3612
ut	-9.36159
▁1900-	-9.36385
▁bør	-9.36586
▁solgt	-9.36634
▁radio	-9.36687
ra	-9.36771
▁antatt	-9.36827
▁vel	-9.36851
▁suksess	-9.36989
▁lage	-9.36994
▁kvinne	-9.37028
▁høsten	-9.37049
▁gått	-9.37247
▁ba	-9.37262
{	-9.37279
▁bl	-9.37481
▁egentlig	-9.37501
▁økende	-9.37591
▁kysten	-9.37879
▁begrenset	-9.37879
for	-9.38013
▁spørsmål	-9.38029
▁motsetning	-9.38051
▁re	-9.38126
▁høye	-9.38161
▁red	-9.38252
▁offisiell	-9.38367
▁åtte	-9.3848
▁historiske	-9.38676
▁best	-9.38731
ler	-9.38818
▁svarte	-9.38835
▁tonn	-9.38861
▁berlin	-9.38917
▁jesus	-9.38935
▁forskere	-9.39039
▁skaffe	-9.39046
▁krevde	-9.39049
isme	-9.3905
▁nærmest	-9.39076
ma	-9.3915
▁johan	-9.39331
▁bevege	-9.39688
▁uttrykk	-9.39694
▁venstre	-9.39715
om	-9.39786
▁systemet	-9.39793
▁unntak	-9.39793
▁transport	-9.39797
▁interesse	-9.39805
▁huset	-9.39822
▁luft	-9.39848
▁spor	-9.39931
▁bror	-9.39951
▁20.	-9.3996
▁arten	-9.40045
▁utvidet	-9.40074
▁høyt	-9.40191
▁slå	-9.40335
▁drive	-9.40417
▁utgjør	-9.40432
▁fortsette	-9.40475
▁bo	-9.40647
▁skipet	-9.40656
ke	-9.40743
=	-9.40744
▁utført	-9.40749
▁kunnskap	-9.40802
▁klar	-9.40879
▁irland	-9.40963
▁beskrevet	-9.40977
over	-9.41037
▁peter	-9.41038
▁japan	-9.41279
▁david	-9.41359
relativt	-9.41639
▁viss	-9.41662
▁1998	-9.41685
▁kampen	-9.41686
▁aktiv	-9.41809
▁5.	-9.41827
▁utvikle	-9.41963
▁bodde	-9.42046
▁datter	-9.42103
▁lever	-9.42198
▁7.	-9.42249
▁lav	-9.42283
ta	-9.42391
▁snart	-9.42565
▁ske	-9.42624
▁veien	-9.42655
▁ganske	-9.4267
▁fantes	-9.42712
▁loven	-9.42741
▁full	-9.42763
▁tidlige	-9.4291
▁linje	-9.42933
▁18.	-9.43008
da	-9.43047
▁hundre	-9.43081
amerika	-9.43153
▁vannet	-9.43347
▁utsatt	-9.43361
▁lignende	-9.43427
▁sist	-9.4366
▁politikk	-9.43696
▁12.	-9.43826
▁2017	-9.43828
tiden	-9.43889
følgende	-9.44017
erne	-9.4404
▁hentet	-9.44084
▁øke	-9.44267
ingen	-9.44269
id	-9.44423
▁slag	-9.4443
▁familien	-9.44449
▁olje	-9.4445
▁motor	-9.44462
▁utnevnt	-9.44467
▁felt	-9.44614
▁historisk	-9.4465
▁polen	-9.44672
▁råd	-9.44762
▁vokste	-9.44819
▁biskop	-9.44938
as	-9.44967
▁havet	-9.45025
▁skapte	-9.45259
▁etterhver	-9.45397
▁1990	-9.45413
▁brøt	-9.45489
▁as	-9.45493
▁sosiale	-9.45585
▁1970-	-9.45838
▁følger	-9.4584
▁eksempler	-9.45875
▁organisert	-9.45955
▁erobret	-9.46063
▁motstand	-9.46258
5	-9.46261
▁måten	-9.46294
▁landslag	-9.46309
co	-9.46316
▁kroner	-9.46357
▁solen	-9.46363
▁bar	-9.46518
▁stat	-9.46561
▁føre	-9.46639
▁sentrum	-9.46783
▁tap	-9.46807
▁gifte	-9.47057
▁11.	-9.47332
▁ei	-9.47355
▁14.	-9.47515
ning	-9.47533
▁erklært	-9.47538
▁pave	-9.4778
at	-9.47806
▁16.	-9.47814
▁plan	-9.47832
▁betale	-9.47849
▁unngå	-9.47922
▁danne	-9.48084
▁bil	-9.48287
▁8.	-9.48336
▁størrelse	-9.48403
loven	-9.4896
▁penger	-9.48985
ste	-9.49135
▁dominere	-9.49688
▁jarl	-9.49699
▁afrika	-9.49997
▁australia	-9.50021
▁brev	-9.5004
▁syn	-9.50247
▁10.	-9.50255
▁vitenskapelig	-9.50383
▁kongens	-9.50424
▁nærheten	-9.50471
▁hevder	-9.50623
▁handel	-9.5069
▁9.	-9.5075
▁byene	-9.50767
▁1960-	-9.5083
▁nektet	-9.50837
▁mytologi	-9.50856
▁17	-9.50864
▁betegnelsen	-9.50871
lig	-9.50906
▁professor	-9.50931
▁iv	-9.51016
|	-9.5105
▁tekst	-9.51166
▁19.	-9.51223
▁tjeneste	-9.51292
▁årlig	-9.51384
▁cm	-9.51535
▁arbeider	-9.51611
▁effekt	-9.51622
▁jødene	-9.51698
▁dansk	-9.51726
▁helse	-9.51732
▁omtalt	-9.51763
▁fungere	-9.51794
▁filmen	-9.51865
▁nyere	-9.5203
▁1994	-9.52091
▁13.	-9.52187
▁martin	-9.52214
▁besto	-9.52246
▁stil	-9.52318
▁religion	-9.52353
▁københavn	-9.5237
▁bilde	-9.52384
▁sammenheng	-9.52501
▁bøker	-9.52536
▁nederland	-9.52537
ch	-9.52549
▁forble	-9.52626
▁folket	-9.52666
▁levde	-9.52776
▁hellige	-9.52866
liggende	-9.52923
▁uavhengig	-9.53042
▁syv	-9.53076
▁industri	-9.53261
▁representert	-9.53321
▁skape	-9.5346
▁lot	-9.53477
▁ansvar	-9.53489
▁endte	-9.53513
den	-9.53573
▁kroppen	-9.53643
▁fremst	-9.53644
▁anti	-9.53645
▁status	-9.53712
▁benyttes	-9.53749
▁spille	-9.53789
▁typer	-9.53888
▁1940	-9.53896
be	-9.5418
▁masse	-9.54312
▁spilt	-9.54353
▁ytre	-9.54373
▁1944	-9.54389
der	-9.54456
isk	-9.54469
▁1700-	-9.54482
▁1996	-9.5467
▁fred	-9.54752
▁university	-9.54891
▁james	-9.55056
ur	-9.55066
▁fullstendig	-9.551
▁1980-	-9.55155
▁oppsto	-9.55259
▁sang	-9.55332
▁nevnt	-9.55415
▁dog	-9.55474
▁former	-9.55538
▁posisjon	-9.55851
▁totalt	-9.55878
▁cirka	-9.55892
systemet	-9.55919
▁stavanger	-9.56019
▁omfatter	-9.56066
▁21.	-9.56169
▁skrive	-9.56299
▁hindre	-9.56414
▁bind	-9.56458
▁hvite	-9.56473
▁22.	-9.56516
é	-9.56591
▁dømt	-9.56732
▁jødiske	-9.56963
▁air	-9.57188
▁ko	-9.57189
▁dra	-9.57219
▁nasjonale	-9.57232
▁hellas	-9.57238
europa	-9.57254
▁foran	-9.57275
▁verdi	-9.5738
▁teksten	-9.57381
norge	-9.57409
▁lære	-9.5746
▁26.	-9.57468
▁dekket	-9.57715
▁eu	-9.57729
▁britisk	-9.57768
▁hastighet	-9.57852
▁kongelige	-9.57921
▁varme	-9.57992
▁gradvis	-9.58006
▁maria	-9.58163
▁produksjonen	-9.58218
ad	-9.58235
▁regionen	-9.58298
▁1993	-9.58299
▁landene	-9.58309
8	-9.58323
ledende	-9.58395
▁skylde	-9.58403
▁ødelagt	-9.58488
▁ting	-9.58679
▁elektriske	-9.58772
▁trekk	-9.58866
▁svensk	-9.58876
▁følgende	-9.58884
▁stammer	-9.58958
▁press	-9.59104
▁kilde	-9.59131
▁1992	-9.59335
▁mulighet	-9.5938
▁george	-9.59417
li	-9.59445
▁island	-9.59481
▁1991	-9.59547
▁forslag	-9.59562
▁tak	-9.59597
_	-9.59727
▁bygde	-9.59976
▁beskriver	-9.60015
▁universitetet	-9.6005
▁oppnå	-9.60052
or	-9.60171
▁hovedsak	-9.60305
▁høyeste	-9.60357
▁elven	-9.60382
▁tur	-9.60551
com	-9.60595
ly	-9.60663
▁studier	-9.60806
▁bidro	-9.6083
▁keiseren	-9.6091
▁30.	-9.60958
▁johannes	-9.61011
▁imot	-9.61034
▁serien	-9.61037
▁ledelse	-9.61053
▁1997	-9.61064
▁regnet	-9.61086
▁300	-9.61381
▁riktig	-9.61483
ner	-9.61644
lag	-9.6171
▁oftest	-9.61757
▁1995	-9.61854
▁bidra	-9.61855
▁sammenligne	-9.61902
▁saga	-9.61991
▁påvirke	-9.62039
▁van	-9.62088
▁angrepet	-9.62125
departementet	-9.62141
▁jern	-9.6216
trukket	-9.62183
▁behandle	-9.62218
▁edvard	-9.62233
▁makten	-9.62284
▁grunnet	-9.62301
▁grunnlag	-9.62349
▁passasjerer	-9.62393
romerske	-9.62466
▁ne	-9.62579
▁z	-9.626
ge	-9.62611
▁skriver	-9.62728
▁vår	-9.62734
▁hånd	-9.62827
▁resultatet	-9.62889
▁forfatteren	-9.62978
▁planen	-9.63003
▁canada	-9.63017
▁antikken	-9.63034
▁private	-9.63296
▁skolen	-9.6333
▁inspirert	-9.6333
▁vinteren	-9.63367
sson	-9.63438
▁serie	-9.63492
▁sosial	-9.63547
▁buss	-9.6355
▁trykk	-9.636
▁amerikansk	-9.63649
▁spanske	-9.63809
▁1941	-9.6386
th	-9.64009
▁80	-9.64051
▁0	-9.64096
▁praktisk	-9.64135
ansett	-9.64179
▁post	-9.6428
▁teater	-9.64308
▁gate	-9.64375
▁fjell	-9.64388
▁1942	-9.64451
▁paven	-9.64551
▁stockholm	-9.64567
▁gass	-9.64576
▁fange	-9.64648
▁natur	-9.64927
▁farge	-9.64979
▁pr	-9.64982
hus	-9.65159
▁sterke	-9.65218
▁generell	-9.6526
▁hensyn	-9.65411
▁svart	-9.65471
ns	-9.65547
▁19	-9.6573
▁beslutte	-9.65911
▁britene	-9.65949
▁teori	-9.66058
▁23.	-9.66079
▁behandling	-9.66092
▁richard	-9.6612
▁1989	-9.6616
drevet	-9.66261
▁kongedømmet	-9.66264
▁versjon	-9.66276
ca	-9.66305
▁jernbane	-9.66441
▁bygninger	-9.66452
▁yngre	-9.66592
▁tusen	-9.66648
▁28.	-9.66687
to	-9.66692
▁liste	-9.66714
▁jo	-9.66758
▁sangen	-9.66862
▁arrangert	-9.66935
ede	-9.66962
▁fotball	-9.67004
▁avtale	-9.6702
▁samling	-9.67031
▁standard	-9.67047
▁25.	-9.67082
▁dels	-9.67101
▁retten	-9.6713
bo	-9.6714
▁di	-9.67153
▁design	-9.672
▁tvunge	-9.67343
▁politiet	-9.67491
▁sent	-9.67524
▁sider	-9.67554
▁etterfulgt	-9.67624
▁kalte	-9.67653
▁charles	-9.67671
▁tilgjengelig	-9.67676
▁dronning	-9.67684
▁våren	-9.67963
▁materiale	-9.68057
▁produsere	-9.68079
▁sluttet	-9.68235
▁carl	-9.68471
▁myndigheter	-9.68524
▁befolkning	-9.68553
▁24	-9.68621
▁jakt	-9.68784
▁opera	-9.68799
▁sol	-9.68895
▁1600-	-9.68937
ja	-9.68978
▁parlamentet	-9.69012
▁stilt	-9.69081
▁1939	-9.69254
▁åpne	-9.69363
▁beseiret	-9.69368
▁hav	-9.69483
▁y	-9.69504
▁no	-9.69566
▁betegne	-9.69603
▁forårsake	-9.69867
▁lyktes	-9.69957
▁timer	-9.69978
▁bevegelse	-9.70015
▁introdusert	-9.70328
▁berømt	-9.7045
▁stilling	-9.70489
arkiv	-9.70563
▁ungarn	-9.70583
▁tilgang	-9.70717
▁politi	-9.70813
▁dikt	-9.71038
tt	-9.71087
▁ekstra	-9.71132
▁avstand	-9.71256
▁24.	-9.71414
▁egyptisk	-9.7146
▁tradisjon	-9.71482
0	-9.71495
▁krever	-9.71596
▁tydelig	-9.7165
▁brann	-9.71694
▁temperatur	-9.71757
▁nederlandsk	-9.71802
▁menneske	-9.71837
▁grunnlagt	-9.71872
▁tyskerne	-9.71923
▁definert	-9.71928
▁bruken	-9.71971
▁ønsker	-9.71973
▁ansett	-9.72026
▁alene	-9.72097
▁park	-9.72228
▁bandet	-9.72242
ni	-9.72261
▁museum	-9.72324
▁utgjorde	-9.72413
▁nærmere	-9.72418
▁publikum	-9.7247
ti	-9.72535
▁fulgt	-9.72624
7	-9.72727
▁hertug	-9.72764
▁olav	-9.72767
▁gården	-9.72803
▁fremste	-9.7287
▁vedtatt	-9.72902
▁el	-9.72911
ist	-9.72987
ius	-9.73007
il	-9.73109
▁opprinnelse	-9.73223
▁røde	-9.73265
▁pris	-9.73314
▁paul	-9.73412
▁lover	-9.73476
▁henry	-9.7348
bevegelsen	-9.73584
▁mark	-9.74016
▁fjernet	-9.74118
▁lokal	-9.74294
▁skjønt	-9.74314
▁organisasjonen	-9.74316
ion	-9.74351
▁larven	-9.7437
kk	-9.74387
▁varierer	-9.74434
▁tett	-9.74466
▁østlige	-9.74476
▁valget	-9.74502
▁faren	-9.74574
▁bakken	-9.74613
enes	-9.7488
▁bidrag	-9.75025
siden	-9.75078
▁søkt	-9.75143
▁1943	-9.75167
▁oppmerksomhet	-9.75199
▁situasjonen	-9.75402
▁høre	-9.75517
til	-9.7555
ga	-9.75555
▁1990-	-9.75559
am	-9.75574
▁hjelpe	-9.75648
lse	-9.75719
▁alder	-9.75741
▁national	-9.7584
▁endre	-9.75927
øy	-9.75939
plass	-9.75946
▁romerne	-9.76092
▁harald	-9.76197
og	-9.76247
▁kilometer	-9.76446
▁tiltak	-9.76471
▁filosofi	-9.76589
▁overflaten	-9.76595
ier	-9.76645
▁bilder	-9.76701
▁populære	-9.76921
pa	-9.76971
▁nowrap	-9.77046
▁foreslått	-9.77053
ling	-9.77061
▁avtalen	-9.77062
▁økonomi	-9.77175
familien	-9.77187
afrika	-9.7719
▁1986	-9.77207
▁1950-	-9.77306
▁forfatter	-9.77334
▁27.	-9.77342
▁kl	-9.77377
▁spillet	-9.77437
offisielt	-9.7744
▁70	-9.77666
9	-9.77713
▁ur	-9.77751
gen	-9.77795
▁world	-9.77822
virket	-9.77841
▁veldig	-9.77947
▁vekst	-9.78095
▁forbudt	-9.78114
▁års	-9.7815
ring	-9.78162
▁uker	-9.7818
▁fengsel	-9.78183
ri	-9.78245
▁formen	-9.78248
▁finland	-9.78292
▁nrk	-9.78429
ley	-9.78433
▁sovjetiske	-9.78486
▁magnetisk	-9.78554
området	-9.78578
ium	-9.78595
▁strid	-9.78685
▁lille	-9.78808
▁bygningen	-9.79001
▁roman	-9.79034
▁innbyggere	-9.7906
▁sak	-9.79067
▁sommer	-9.79192
▁vilhelm	-9.79294
▁sykdom	-9.79416
▁oppdrag	-9.79531
▁grense	-9.79637
▁romerriket	-9.79873
▁oppstår	-9.79874
▁visse	-9.79906
▁forlate	-9.80056
▁oppført	-9.80066
▁tapt	-9.80151
▁ordre	-9.80222
▁1980	-9.80293
▁muligheten	-9.80336
▁holder	-9.80404
▁forklare	-9.80457
▁redusere	-9.80513
▁1972	-9.80529
▁akseptert	-9.80679
▁privat	-9.80746
▁on	-9.80919
▁stater	-9.80944
krigen	-9.8095
▁22	-9.8098
▁29.	-9.81156
▁tog	-9.81352
▁tegn	-9.81409
▁opptatt	-9.81532
▁klima	-9.81538
▁henrettet	-9.8165
▁problem	-9.81783
▁japansk	-9.818
▁1970	-9.81869
▁bane	-9.8188
▁miljø	-9.81939
▁kull	-9.82104
▁1950	-9.82108
▁styrkene	-9.82155
▁korn	-9.82289
mer	-9.82308
ken	-9.8243
▁vet	-9.82447
▁nummer	-9.82489
▁delta	-9.82537
▁jeg	-9.82537
▁hodet	-9.82591
▁san	-9.82652
▁avgjørende	-9.8268
▁1960	-9.82735
▁35	-9.82778
▁portugal	-9.8278
▁bøndene	-9.82814
▁handels	-9.82825
▁spenning	-9.82841
▁2018	-9.82934
▁kvinnelig	-9.82961
▁ludvig	-9.83076
▁litterær	-9.83089
▁1979	-9.83214
▁ro	-9.83255
▁voksne	-9.83337
▁frykt	-9.83342
▁økning	-9.83344
▁city	-9.83404
▁tilfelle	-9.83455
▁1933	-9.83456
▁virksomhet	-9.83461
▁typen	-9.83474
▁nivå	-9.83483
▁teorien	-9.83638
▁seier	-9.83642
▁fjerde	-9.83677
tre	-9.83848
sa	-9.83917
▁egg	-9.84004
▁bibelen	-9.84204
ul	-9.84248
▁beskrev	-9.84307
▁am	-9.84309
▁alternativ	-9.84346
▁prisen	-9.8443
▁høyde	-9.84485
▁oversatt	-9.8453
▁formatnum	-9.8454
do	-9.84575
▁erik	-9.84577
rat	-9.84603
opptil	-9.84644
si	-9.84712
▁utstyr	-9.84718
▁vinter	-9.84903
▁inne	-9.84929
19	-9.84936
▁halvparten	-9.84962
▁sistnevnte	-9.84982
mo	-9.84992
▁forhindre	-9.85087
▁1984	-9.8509
▁ellers	-9.85195
▁sagt	-9.85405
▁jan	-9.85438
▁sjø	-9.85446
▁90	-9.8549
▁sende	-9.85549
system	-9.85678
▁royal	-9.85693
▁sesongen	-9.85828
▁international	-9.85893
dynastiet	-9.85919
▁nåværende	-9.86086
▁forbundet	-9.86091
▁orden	-9.86143
▁skog	-9.8627
▁album	-9.86404
▁rettigheter	-9.86411
▁uttalte	-9.86447
▁avsluttet	-9.86488
▁overført	-9.8653
▁skade	-9.86576
▁stå	-9.86669
▁forent	-9.868
▁hustru	-9.86876
▁daglig	-9.86905
▁ansvarlig	-9.86955
▁årsaken	-9.87037
▁1987	-9.87072
▁konkurranse	-9.8713
▁harry	-9.87142
▁populær	-9.8717
▁atmosfæren	-9.872
▁henholdsvis	-9.87309
▁1914	-9.87312
▁ansatte	-9.87339
▁ekteskap	-9.87411
▁lyd	-9.87414
▁vendt	-9.87427
▁het	-9.87431
▁uvanlig	-9.87449
▁fiske	-9.87462
▁tolv	-9.8758
ig	-9.87587
▁internasjonal	-9.87706
▁grand	-9.87723
▁etablere	-9.87737
▁prosessen	-9.87823
▁skje	-9.87828
.[	-9.87835
▁øker	-9.87853
q	-9.87877
▁legger	-9.87893
▁tillatelse	-9.87915
▁likhet	-9.87931
▁bevegelsen	-9.87939
▁fullt	-9.87966
▁aktivitet	-9.88027
▁berg	-9.88075
▁samle	-9.88158
it	-9.88171
▁salg	-9.88258
▁øvrige	-9.88316
▁minutter	-9.88329
▁arrestert	-9.88373
▁beskyttelse	-9.88379
▁kreve	-9.88418
▁kritisk	-9.8846
▁symbol	-9.88513
▁opphav	-9.88537
dalen	-9.88628
▁spill	-9.88656
▁studert	-9.88728
▁underlagt	-9.88737
▁vis	-9.88763
▁tale	-9.88782
▁artikkel	-9.8884
\	-9.88842
▁klasse	-9.88909
▁flyktet	-9.88919
▁fullført	-9.89023
▁tradisjonel	-9.89059
▁arkitektur	-9.89126
▁1920	-9.89141
▁oversettelse	-9.89165
▁løp	-9.89174
▁skapt	-9.89257
▁1948	-9.89366
▁vær	-9.89406
▁lettere	-9.89411
▁velge	-9.89436
gikk	-9.89458
▁1973	-9.89469
▁400	-9.89547
▁kritikk	-9.89656
▁150	-9.89684
▁måter	-9.89739
▁kristen	-9.89776
▁gjennomføre	-9.89834
▁ledd	-9.89895
▁selskap	-9.90057
▁modell	-9.90083
▁folke	-9.90096
▁nordisk	-9.90248
▁statsminister	-9.90249
ker	-9.9026
▁sjelden	-9.90293
▁elementer	-9.90314
▁representanter	-9.9035
▁målet	-9.90385
▁grunnlaget	-9.90404
▁funksjon	-9.90594
ro	-9.90619
▁jakob	-9.90646
▁tall	-9.90706
ik	-9.90761
▁kapasitet	-9.90771
▁bosatt	-9.90787
▁lengde	-9.90791
▁varte	-9.90925
▁milliarder	-9.9099
▁definere	-9.91021
▁ønske	-9.91038
▁tapte	-9.91153
▁sivile	-9.91193
▁forskjellig	-9.91211
▁arbeids	-9.91286
▁hoff	-9.91515
▁company	-9.9161
vel	-9.91624
▁1974	-9.91786
banen	-9.91897
stein	-9.91897
▁forsvant	-9.91905
▁prøve	-9.91995
▁rød	-9.92121
▁forfattere	-9.92123
▁språket	-9.92148
hvem	-9.92198
▁1988	-9.92294
▁verker	-9.9235
▁grunnen	-9.92366
ng	-9.92389
▁sand	-9.92397
▁trafikk	-9.92415
▁kommunen	-9.92473
▁===	-9.92486
▁sølv	-9.92488
▁slags	-9.92531
▁observert	-9.92533
ger	-9.92756
▁håkon	-9.92784
▁øvre	-9.92789
▁hendelser	-9.92794
▁begrep	-9.9288
▁1900	-9.92918
▁mil	-9.93094
▁1930-	-9.93103
▁egenskaper	-9.93183
▁hel	-9.93192
▁grunnleggende	-9.93249
▁oldtiden	-9.93321
▁or	-9.93378
▁1964	-9.93386
▁dr	-9.93421
▁hår	-9.93525
▁osmanske	-9.93612
▁punkt	-9.93625
▁fritt	-9.93762
ering	-9.93771
▁tolke	-9.93844
▁hovedstaden	-9.93879
▁1500-	-9.93893
▁31.	-9.93908
▁jean	-9.93921
ha	-9.9396
▁gjaldt	-9.93982
▁1968	-9.93996
▁enorm	-9.94022
▁statlig	-9.94055
▁tekster	-9.94084
▁konflikt	-9.94108
▁1949	-9.94174
▁flertall	-9.94235
▁begynner	-9.94356
▁ankom	-9.94413
▁21	-9.94483
«	-9.94507
▁prosjektet	-9.94511
▁arbeide	-9.94527
ina	-9.94566
▁tildelt	-9.94617
▁kristendommen	-9.94622
▁sikkerhet	-9.94641
▁solgte	-9.9466
▁flytte	-9.94662
▁ukjent	-9.94683
▁planer	-9.9471
▁tilhører	-9.94757
▁endring	-9.94773
▁utgave	-9.94828
▁helst	-9.94907
nnebærer	-9.94986
▁foreslo	-9.9505
▁hvit	-9.95057
▁hall	-9.95153
▁hitler	-9.95154
▁rammet	-9.95157
▁sveits	-9.95233
▁avvist	-9.95322
klassen	-9.95353
▁inngå	-9.95377
▁fremmet	-9.9539
▁grav	-9.95406
▁byggingen	-9.95456
▁betydelige	-9.95473
▁...	-9.95535
▁utbredt	-9.95568
▁li	-9.95578
▁effekten	-9.9568
▁åpen	-9.95696
▁godkjent	-9.95699
▁bank	-9.95706
▁møter	-9.95901
▁svar	-9.95909
▁faste	-9.95944
▁mangel	-9.95992
▁tronen	-9.9606
▁kjempet	-9.96107
▁blod	-9.96114
▁skotsk	-9.96157
▁avis	-9.96178
▁fot	-9.9625
▁beholdt	-9.96325
bestod	-9.96366
▁virker	-9.96368
▁fysisk	-9.96389
▁1976	-9.96411
▁strømmen	-9.96521
▁1967	-9.96541
▁størst	-9.966
▁utenlandske	-9.96628
▁asia	-9.96794
▁hensikt	-9.96866
▁marine	-9.96936
▁bytte	-9.97048
▁begynne	-9.97095
▁korte	-9.97148
▁kristendom	-9.97198
les	-9.97263
▁kjøpe	-9.97264
▁konstant	-9.9745
▁otto	-9.97497
▁tider	-9.97516
▁poeng	-9.97534
▁starten	-9.97546
▁enhver	-9.97587
▁oppstod	-9.97768
rom	-9.97782
▁øverste	-9.97792
▁sønnen	-9.97841
▁fjerne	-9.97945
▁markert	-9.97985
▁1969	-9.98021
▁te	-9.98089
det	-9.9826
▁nevnes	-9.98371
▁1982	-9.98431
▁amerika	-9.98486
▁lansert	-9.98588
▁magnus	-9.98612
▁23	-9.98715
form	-9.98746
▁los	-9.98769
▁feltet	-9.98785
▁krigs	-9.98835
▁nett	-9.98921
▁formelt	-9.98975
▁klassiske	-9.99055
▁enhet	-9.99059
▁topp	-9.99179
▁stats	-9.99196
▁1946	-9.99221
▁union	-9.99243
ø	-9.99247
▁medførte	-9.99283
▁bi	-9.99296
▁revolusjon	-9.99313
▁beskytte	-9.99482
▁kloster	-9.99533
▁statens	-9.99561
▁fag	-9.99602
▁1000	-9.99673
▁vesentlig	-9.99754
▁toppen	-9.99775
▁representerer	-9.99781
▁tradisjonen	-9.99794
▁fanger	-9.99854
▁dvs	-9.99858
▁reaksjon	-9.9986
▁fil	-9.99899
▁stille	-9.99903
▁studie	-9.99918
ard	-9.99926
▁ren	-9.99932
▁1985	-10.0005
▁drepte	-10.001
▁temperaturen	-10.0011
eksisterende	-10.0011
je	-10.0015
▁sesong	-10.002
▁hardt	-10.0032
fra	-10.0038
▁albumet	-10.0042
▁medlemmene	-10.0044
stående	-10.0047
▁kritisert	-10.0049
▁edward	-10.0049
▁georg	-10.0052
va	-10.0061
▁barna	-10.0063
▁festningen	-10.0065
▁handlinger	-10.0067
▁unna	-10.0074
▁antyde	-10.0097
▁ekspedisjonen	-10.0097
▁knut	-10.0098
▁trengte	-10.0101
▁spredte	-10.0104
▁nor	-10.0107
▁ol	-10.0125
▁ladning	-10.0136
serien	-10.0137
▁45	-10.0139
▁slaver	-10.0149
▁fokus	-10.0161
▁dollar	-10.0164
▁rettet	-10.017
▁uavhengighet	-10.0171
▁levende	-10.0178
▁inneholdt	-10.0197
kulturen	-10.02
ør	-10.0209
▁tilstrekkelig	-10.0211
▁klassisk	-10.0224
▁bildet	-10.0228
▁blanding	-10.0231
▁program	-10.024
▁1981	-10.0246
▁religiøs	-10.0247
ic	-10.0247
▁600	-10.0248
▁formål	-10.0272
▁registrert	-10.0272
▁stål	-10.0283
▁frederik	-10.0291
▁papir	-10.0293
ba	-10.0297
per	-10.0302
▁klare	-10.0305
▁deriblant	-10.0309
▁1918	-10.0311
▁diktet	-10.0314
▁eiendom	-10.0314
▁stjerne	-10.0314
▁dør	-10.0317
▁1919	-10.0326
io	-10.0327
▁regler	-10.0328
▁alvorlig	-10.0335
▁truet	-10.0337
▁bred	-10.034
▁inkluderer	-10.0343
▁fisk	-10.0344
▁1983	-10.0344
▁dom	-10.0354
▁prøvd	-10.0362
ry	-10.0366
▁flagg	-10.0366
▁kanoner	-10.0368
▁organisasjon	-10.0371
▁gangen	-10.0374
▁båt	-10.039
▁midlertidig	-10.0391
▁eksisterte	-10.0394
▁funn	-10.0403
stått	-10.0405
▁minne	-10.0412
▁minste	-10.0414
▁utstyrt	-10.042
▁jerusalem	-10.0426
▁spredt	-10.0434
opp	-10.0439
▁universitet	-10.0446
▁handling	-10.0446
▁flåten	-10.045
▁michael	-10.0453
▁venn	-10.0454
▁stiftet	-10.0455
▁ute	-10.0461
gruppen	-10.0466
▁tidspunkt	-10.0472
▁geografisk	-10.0474
▁nemlig	-10.0474
▁aller	-10.0485
▁band	-10.0486
▁ung	-10.0491
▁overflate	-10.0494
▁rommet	-10.0504
▁vekk	-10.0512
▁kor	-10.0513
▁andel	-10.0514
▁gudene	-10.0514
å	-10.0518
▁hjemme	-10.053
▁tegnet	-10.0531
▁totale	-10.0532
▁bra	-10.0541
itet	-10.0555
vik	-10.0557
▁islam	-10.0558
▁gjøres	-10.0559
▁øyene	-10.0565
▁midler	-10.0567
erte	-10.058
øya	-10.0582
▁dobbelt	-10.0585
▁halv	-10.0587
▁belgia	-10.0592
▁gård	-10.0597
▁gjenværende	-10.0609
▁historikere	-10.0613
▁organisasjoner	-10.0616
▁planet	-10.0624
▁ennå	-10.0629
▁spillere	-10.063
ko	-10.0637
ny	-10.0641
▁frihet	-10.0642
▁styret	-10.065
ledet	-10.0652
▁1956	-10.066
▁28	-10.0661
▁klosteret	-10.0664
▁natt	-10.0666
▁betydningen	-10.0674
▁ss	-10.0688
▁involvert	-10.0691
▁kirker	-10.07
▁ledere	-10.0704
▁ring	-10.0705
▁sønner	-10.0706
▁oss	-10.0708
▁metall	-10.0713
▁styrt	-10.0724
em	-10.0724
navnet	-10.0729
▁flyet	-10.0731
▁lærer	-10.0743
▁etterfølger	-10.0743
▁leve	-10.0752
▁datert	-10.0755
▁johann	-10.0756
▁scott	-10.0757
▁1936	-10.0763
▁fortellingen	-10.077
▁samarbeidet	-10.0771
lin	-10.0778
▁1965	-10.0785
▁oppvarming	-10.0788
▁kg	-10.0796
▁beregnet	-10.0803
▁bekreftet	-10.0817
▁1910	-10.0818
▁protestantisk	-10.0818
▁presset	-10.082
▁pro	-10.0821
▁observasjon	-10.0823
▁tilhengere	-10.0828
▁selvstendig	-10.0836
▁1978	-10.0853
▁sterkere	-10.0857
▁vitenskap	-10.0869
▁salt	-10.0872
▁vind	-10.0872
▁bord	-10.0873
verk	-10.0879
▁dukket	-10.0881
▁joseph	-10.0881
▁forvente	-10.0885
▁innførte	-10.0892
▁flåte	-10.0894
▁lands	-10.0898
▁tema	-10.0902
▁wales	-10.0902
▁barne	-10.0907
▁tilhørte	-10.0921
▁fredrik	-10.0926
▁innhold	-10.0927
ell	-10.093
▁slikt	-10.0932
▁prest	-10.0934
▁ja	-10.094
▁karakter	-10.0947
▁stemme	-10.0947
▁tidspunktet	-10.0947
ham	-10.095
▁særskilt	-10.0954
▁planlagt	-10.0956
▁ber	-10.0965
hvilken	-10.0967
▁kommersiell	-10.0969
▁eksisterer	-10.0973
▁kamper	-10.0977
▁arthur	-10.0982
▁wien	-10.0998
▁1971	-10.1008
▁bønder	-10.1011
▁opptrer	-10.1011
▁programmet	-10.1013
▁motsatt	-10.1014
▁burde	-10.1017
▁skader	-10.1017
▁fungerte	-10.1023
▁busser	-10.1032
▁latinsk	-10.1036
▁lese	-10.1038
▁time	-10.1039
▁blå	-10.1046
▁allianse	-10.1053
▁biler	-10.1057
▁tanke	-10.106
▁washington	-10.1077
]	-10.1077
▁1975	-10.1084
▁ski	-10.1085
▁nedre	-10.1085
ian	-10.1094
▁provinsen	-10.1096
ant	-10.1101
▁opprøret	-10.1102
▁1938	-10.1102
▁1947	-10.1112
▁starte	-10.1118
▁kastet	-10.1125
▁visst	-10.1126
▁natten	-10.1128
tid	-10.1128
▁»''	-10.113
▁1961	-10.1133
værende	-10.1138
▁eier	-10.116
produksjon	-10.1163
▁overtatt	-10.1164
▁rock	-10.1168
▁tidligste	-10.1172
▁trykket	-10.1177
▁stråling	-10.1177
▁muslimsk	-10.1185
▁ka	-10.119
▁utslipp	-10.1194
▁1963	-10.1202
▁lagene	-10.1205
▁preussen	-10.1214
▁kombinert	-10.1223
▁invasjon	-10.1233
▁metoder	-10.1235
▁trenger	-10.1236
▁1953	-10.1238
▁størrelsen	-10.1242
▁mørke	-10.1246
▁mac	-10.125
▁tyrkia	-10.1256
▁me	-10.1258
▁kors	-10.1259
lo	-10.1263
▁anne	-10.1274
sten	-10.1278
▁1954	-10.1278
▁fordelt	-10.128
▁hode	-10.1283
▁avisen	-10.1287
▁katolsk	-10.1292
▁lo	-10.1301
▁populært	-10.1301
▁gjennomsnittlig	-10.1303
dyr	-10.1308
▁midtøsten	-10.131
▁kjenner	-10.1317
▁areal	-10.1318
▁af	-10.1319
▁besøk	-10.132
▁und	-10.1328
▁partier	-10.1333
▁stemmer	-10.134
▁arkeologisk	-10.1341
ation	-10.1341
▁nedlagt	-10.1368
▁26	-10.1371
ce	-10.1393
▁hester	-10.1411
▁vold	-10.1412
▁utnytte	-10.1415
▁snø	-10.1417
▁oppkalt	-10.142
▁rette	-10.1427
▁wilhelm	-10.1428
▁sanger	-10.1433
▁biologi	-10.1435
▁brent	-10.1437
▁søke	-10.1442
▁tilsvarer	-10.1443
▁bygger	-10.1444
▁bor	-10.1444
▁nært	-10.1446
▁fremme	-10.1458
ver	-10.1458
▁rent	-10.1463
ige	-10.1464
au	-10.1465
folk	-10.1466
▁1915	-10.1467
▁problemet	-10.148
▁dekke	-10.148
▁guds	-10.1482
▁matematikk	-10.1487
▁1929	-10.1494
spill	-10.1499
▁artene	-10.1506
▁opplevde	-10.1516
▁bad	-10.152
▁planter	-10.152
▁søster	-10.1525
språk	-10.153
▁begrense	-10.1536
eller	-10.1537
▁forskjellen	-10.1541
▁iran	-10.1543
▁menneskene	-10.1547
▁forsvar	-10.1549
▁angelsaksisk	-10.1553
inger	-10.1555
mi	-10.1556
▁gustav	-10.1558
▁forskjell	-10.1559
under	-10.1568
▁vin	-10.1569
▁prosess	-10.157
▁ben	-10.1578
▁1977	-10.1597
▁innlede	-10.1598
▁sørget	-10.1601
▁trodd	-10.1602
▁tilhøre	-10.1614
▁klubben	-10.1622
▁passasjer	-10.1622
tatt	-10.1627
▁media	-10.163
▁ap	-10.1636
▁stoppet	-10.164
▁1958	-10.1643
▁merke	-10.1649
▁adelen	-10.1651
▁maskin	-10.1652
▁kraftverk	-10.1656
▁knytte	-10.1657
▁lege	-10.1663
▁interesser	-10.1666
▁initiativ	-10.1669
▁internasjonalt	-10.1671
▁dramatisk	-10.1671
▁halvdel	-10.1676
ie	-10.1678
men	-10.1683
▁banen	-10.1684
pe	-10.1686
▁saker	-10.169
▁innføring	-10.1699
▁tilsynelatende	-10.1699
▁ordinær	-10.1699
▁75	-10.1701
ve	-10.1703
▁teknisk	-10.1709
▁1916	-10.1719
▁frie	-10.1721
▁120	-10.1726
utelukkende	-10.1726
▁1966	-10.1731
▁presse	-10.1733
▁forandre	-10.1737
▁perioder	-10.1742
▁konstruert	-10.1742
▁sentralt	-10.1746
▁kjøre	-10.1749
▁styrte	-10.1751
▁grenser	-10.1759
▁venner	-10.1762
▁delte	-10.1769
▁vurdert	-10.1778
▁metode	-10.1779
▁handlingen	-10.178
▁opprette	-10.178
▁historikeren	-10.1783
▁bygging	-10.1784
▁bolig	-10.1786
bar	-10.1787
▁enkle	-10.1788
▁arkitekt	-10.1788
▁republikken	-10.179
▁lave	-10.179
▁west	-10.1791
▁op	-10.1791
▁spørsmålet	-10.18
▁umiddelbart	-10.18
▁1957	-10.1805
▁studenter	-10.1815
po	-10.1817
▁oppleve	-10.1818
skap	-10.1827
▁sykehus	-10.1828
ki	-10.1846
ford	-10.1851
go	-10.1851
▁nedgang	-10.1852
▁beordret	-10.1858
▁direktør	-10.1862
▁forekommer	-10.1867
.,	-10.1872
▁årsak	-10.1873
▁go	-10.1874
▁hen	-10.1877
▁nordover	-10.188
▁markedet	-10.188
▁mangler	-10.1886
▁demokratisk	-10.1889
▁ra	-10.1891
▁lar	-10.1894
▁tidvis	-10.19
▁tu	-10.1909
tak	-10.1917
▁athen	-10.1917
▁1920-	-10.1921
▁middelhavet	-10.1929
▁tysklands	-10.1929
▁omtale	-10.193
gått	-10.1934
▁slekt	-10.194
▁antas	-10.1941
res	-10.1946
▁jevn	-10.1951
▁utdannelse	-10.1953
▁mangle	-10.1957
▁undersøkelse	-10.1959
gi	-10.1967
▁fortalte	-10.197
▁metoden	-10.197
▁dokumenter	-10.1975
▁1905	-10.1981
▁skoler	-10.1982
▁1906	-10.1986
▁super	-10.1995
▁mening	-10.1996
▁32	-10.1997
▁hjul	-10.2009
▁vinne	-10.2016
▁tilstand	-10.2024
▁do	-10.2029
▁aktive	-10.2036
▁bro	-10.2038
▁utbredelse	-10.204
▁he	-10.204
ir	-10.2046
▁prester	-10.2051
ber	-10.2052
▁unik	-10.2054
▁umulig	-10.2073
▁lest	-10.2075
▁undersøkelser	-10.2081
▁mennesket	-10.2085
▁foregå	-10.2089
▁em	-10.2094
▁skadet	-10.2095
▁kulturelle	-10.2101
inn	-10.2102
▁innebar	-10.2105
▁con	-10.2107
▁utarbeide	-10.2108
▁sju	-10.2114
▁handler	-10.2114
▁døden	-10.2116
▁overlevde	-10.2118
▁enkel	-10.2118
im	-10.212
▁kvalitet	-10.212
▁1912	-10.2125
▁utføre	-10.2136
▁virke	-10.2137
▁tilknytning	-10.2142
▁avansert	-10.2144
mar	-10.2146
▁angripe	-10.2147
▁po	-10.2147
sett	-10.2149
▁united	-10.215
▁linjen	-10.215
▁tvil	-10.2161
▁handelen	-10.2162
▁rad	-10.2179
▁fart	-10.2185
▁1911	-10.2194
▁hovedstad	-10.2194
▁sam	-10.2199
▁inngikk	-10.2216
▁rester	-10.2221
▁referert	-10.2223
▁konservative	-10.2225
▁grunnla	-10.2225
▁fraktet	-10.2226
mark	-10.2234
▁runde	-10.2235
▁tilby	-10.2242
▁rase	-10.2249
▁ku	-10.2254
▁verdier	-10.2255
▁steg	-10.2255
▁global	-10.2256
▁øy	-10.2257
▁omgang	-10.2258
▁1917	-10.2259
▁veier	-10.2259
▁1962	-10.2266
▁okkupert	-10.2272
▁ansatt	-10.2273
»	-10.2274
▁revet	-10.2276
▁århundret	-10.2276
▁tiår	-10.228
ung	-10.2281
▁smith	-10.2285
▁tekniske	-10.2296
▁kr	-10.2298
▁tor	-10.2302
▁isbn	-10.2303
▁skipene	-10.2303
▁1951	-10.2303
▁resultert	-10.2303
▁delene	-10.2303
▁rapport	-10.2305
▁vii	-10.2308
▁tilpasset	-10.231
▁louis	-10.2312
bruk	-10.2313
▁samisk	-10.232
▁27	-10.2326
▁sørover	-10.233
▁erkebiskop	-10.2343
▁konger	-10.2347
▁tvang	-10.236
▁enheter	-10.2361
▁ar	-10.2361
▁byttet	-10.2365
▁åpent	-10.2366
▁stående	-10.2368
fall	-10.2374
▁flest	-10.2374
▁heter	-10.2382
▁1922	-10.2384
▁opphold	-10.2387
▁vm	-10.239
▁spenningen	-10.2391
▁total	-10.2392
ff	-10.2393
sch	-10.2393
▁effektiv	-10.2394
▁1930	-10.2396
▁republikk	-10.241
▁opprettelse	-10.241
▁fortelle	-10.2411
▁polske	-10.2427
▁lederen	-10.243
▁kapittel	-10.2432
▁skaper	-10.2444
▁middelalder	-10.2445
▁uttrykket	-10.2447
▁talt	-10.2453
▁1934	-10.2465
min	-10.2466
▁kristiania	-10.2469
▁christiania	-10.247
ov	-10.2476
▁krefter	-10.2478
▁tillatt	-10.2481
▁besøkte	-10.2484
riket	-10.2493
▁forsvaret	-10.2496
▁seilte	-10.2508
huset	-10.2511
▁friedrich	-10.2526
▁filip	-10.2529
▁oppgave	-10.2538
▁betegnelse	-10.2543
▁nedbør	-10.2545
▁uttrykt	-10.2546
que	-10.2561
▁jupiter	-10.2563
▁mexico	-10.2567
▁1959	-10.2567
▁kjørt	-10.2567
ud	-10.257
▁start	-10.2572
else	-10.2573
▁teknologi	-10.2583
▁filmer	-10.2591
▁alexander	-10.2595
▁jesu	-10.2597
gar	-10.2598
▁utga	-10.2601
▁california	-10.2613
▁bein	-10.2617
▁250	-10.2624
▁tradisjoner	-10.2629
▁1937	-10.2629
bu	-10.2629
▁tjenester	-10.2636
▁samtidige	-10.2637
▁tråd	-10.2641
▁ideen	-10.2644
▁lu	-10.2645
▁befinne	-10.2654
▁forsøkt	-10.2655
▁kirkelig	-10.2655
▁persisk	-10.2658
▁arne	-10.2662
▁brudd	-10.2665
▁kvinnene	-10.2669
▁ab	-10.2673
▁kyst	-10.2673
▁oppløst	-10.2675
rik	-10.2676
▁800	-10.2679
▁finnmark	-10.2681
▁tilfeldig	-10.2686
▁kjempe	-10.269
grupper	-10.269
▁kalde	-10.2693
▁nøyaktig	-10.2703
▁figurer	-10.271
▁lek	-10.2712
▁identifisert	-10.2712
▁individer	-10.2718
vi	-10.2722
▁arabiske	-10.2724
▁omtales	-10.2729
▁american	-10.273
ansvaret	-10.2731
▁bærer	-10.2732
▁medisinsk	-10.2742
▁bussen	-10.2742
▁hunnen	-10.2745
arbeidet	-10.2745
▁elektrisitet	-10.275
▁brødrene	-10.275
▁studere	-10.2751
▁barnet	-10.2757
▁kone	-10.2762
▁fyr	-10.2764
▁saint	-10.2765
▁stillingen	-10.2766
ica	-10.2771
folket	-10.2771
▁horn	-10.2773
▁1200-	-10.2774
tur	-10.2791
▁sigurd	-10.2798
▁figur	-10.2799
slag	-10.2799
æ	-10.2801
▁vilje	-10.2807
▁juridisk	-10.2817
▁skrifter	-10.282
▁svalbard	-10.2822
▁nylig	-10.2838
▁ad	-10.2839
▁karakteristisk	-10.2847
▁oppgi	-10.285
un	-10.2852
▁mengden	-10.2858
▁systemer	-10.2866
▁teorier	-10.2873
ä	-10.2874
▁albert	-10.2875
▁karriere	-10.2877
▁mennene	-10.2878
▁kraftige	-10.2881
▁drepe	-10.2884
▁eide	-10.2888
▁vers	-10.2889
▁kaller	-10.289
▁skatt	-10.2894
▁foreningen	-10.2894
▁lette	-10.2895
▁vunnet	-10.2902
▁prosjekt	-10.2905
▁løsning	-10.2905
skrevet	-10.2913
bok	-10.2914
▁nevner	-10.2916
feltet	-10.2922
▁påvirkning	-10.2922
▁jens	-10.2925
▁britannia	-10.2927
▁eid	-10.293
bi	-10.2938
▁stjerner	-10.2944
▁1935	-10.2946
▁foretatt	-10.2947
▁bygg	-10.2948
▁jernbanen	-10.2951
som	-10.2955
▁ordenen	-10.2959
▁kontrollen	-10.2975
▁tanker	-10.2976
▁hurtig	-10.298
▁endringen	-10.2981
▁anse	-10.2985
▁blad	-10.2987
▁matematisk	-10.2989
▁1952	-10.299
▁administrasjon	-10.299
▁ombord	-10.2997
på	-10.3003
▁soldatene	-10.3003
heim	-10.3005
▁versjonen	-10.3006
▁virket	-10.3009
▁anledning	-10.3009
▁likne	-10.3009
▁55	-10.301
▁snorre	-10.3012
▁student	-10.3013
ville	-10.3016
▁blandet	-10.3016
▁linjer	-10.3016
▁omfang	-10.302
za	-10.3021
▁rute	-10.3024
▁norden	-10.3024
tyskland	-10.3029
hi	-10.303
▁ferd	-10.3033
▁virksomheten	-10.3034
▁løse	-10.3034
▁innføre	-10.3035
▁riks	-10.3045
▁storm	-10.3046
▁utdanning	-10.305
▁kongeriket	-10.3052
▁stefan	-10.306
▁lokalt	-10.3061
ty	-10.3063
▁kombinasjon	-10.3064
▁mottatt	-10.307
talende	-10.3073
▁forstå	-10.3075
▁36	-10.3076
▁anerkjent	-10.3079
▁kart	-10.3079
▁innsats	-10.3081
▁kaptein	-10.3081
▁divisjon	-10.3082
▁jødisk	-10.3082
▁kap	-10.3083
laget	-10.3086
▁fn	-10.3093
▁forslaget	-10.3096
▁institusjoner	-10.3101
mål	-10.3101
▁betydd	-10.3101
▁innbyggerne	-10.3102
▁fugler	-10.3105
▁kontrollere	-10.3107
▁kon	-10.3108
▁erfaring	-10.3111
asjon	-10.3112
▁argumentert	-10.3119
ting	-10.3119
▁hoffet	-10.312
▁bbc	-10.312
▁rør	-10.3122
▁relativ	-10.3125
▁snakke	-10.3128
▁tilfellet	-10.3132
▁million	-10.3132
▁elizabeth	-10.3141
raskere	-10.3155
kar	-10.3156
▁spredning	-10.3165
▁regulere	-10.3167
▁framfor	-10.3171
▁fortellinger	-10.3173
▁bølge	-10.3179
▁irak	-10.318
▁greid	-10.3184
▁tittel	-10.3185
▁tanken	-10.3185
▁oppfattet	-10.3188
▁etterpå	-10.3188
▁tyrkisk	-10.319
sh	-10.3192
▁bilen	-10.32
▁gravlagt	-10.3205
let	-10.3206
▁nasjoner	-10.3209
▁ære	-10.3214
▁månen	-10.322
▁ruter	-10.3225
▁1955	-10.3227
▁min	-10.3233
▁fremtidig	-10.3237
▁dokumentert	-10.3244
▁virkeligheten	-10.3247
▁elv	-10.3249
▁ruten	-10.3251
▁presentert	-10.3257
▁øyer	-10.3266
▁færre	-10.3267
▁fare	-10.327
▁tunge	-10.327
▁evne	-10.3271
▁konstruksjon	-10.3278
nok	-10.3283
▁etniske	-10.3286
00	-10.3289
▁isen	-10.329
▁gis	-10.3291
▁slekten	-10.3292
▁medisin	-10.3294
▁snakket	-10.3294
linjen	-10.3298
▁møtet	-10.33
▁lager	-10.33
jo	-10.3314
▁grekerne	-10.3315
kon	-10.3318
▁syria	-10.3322
▁anså	-10.3323
▁bånd	-10.3325
▁enig	-10.333
▁nederlag	-10.3332
▁senter	-10.3333
▁ressurser	-10.3334
ll	-10.3336
▁plassere	-10.3337
op	-10.3341
▁leir	-10.3347
▁norrøne	-10.3348
▁konkurransen	-10.3353
▁grunnloven	-10.3354
▁stykke	-10.3361
▁batteri	-10.3362
▁gul	-10.3366
▁brutt	-10.337
▁irske	-10.3373
▁ledelsen	-10.3377
▁reiser	-10.3381
▁tror	-10.3384
▁egnet	-10.34
▁driver	-10.3401
▁engasjert	-10.3406
▁skutt	-10.341
ac	-10.3411
▁tas	-10.3412
▁enighet	-10.3412
▁romanen	-10.3414
ment	-10.3421
▁dannes	-10.3422
itt	-10.3426
▁beskrive	-10.3431
▁kortere	-10.344
▁mannlig	-10.3444
▁beskrives	-10.3446
▁norrøn	-10.3447
▁mur	-10.3448
▁færøyene	-10.345
▁spesial	-10.3459
▁motoren	-10.3459
▁1928	-10.3461
▁objekter	-10.3464
met	-10.3464
▁tropper	-10.3465
vidt	-10.3475
▁energien	-10.3479
▁dekk	-10.3482
▁jon	-10.3488
and	-10.349
▁1932	-10.3494
▁beskyttet	-10.3494
▁dyre	-10.3495
▁prins	-10.3498
▁hendelsene	-10.3504
▁ulovlig	-10.3505
▁skiftet	-10.3506
▁håp	-10.3508
fi	-10.3515
▁sky	-10.3515
▁kulturen	-10.3515
▁pater	-10.3517
▁istedenfor	-10.3518
▁bach	-10.3519
pi	-10.3522
▁null	-10.3524
▁forståelse	-10.3526
▁diameter	-10.3531
▁anlegg	-10.3534
▁lord	-10.3537
▁1913	-10.3539
▁nest	-10.3541
▁dyp	-10.3541
▁forklart	-10.3542
▁bevegelser	-10.3543
▁skifte	-10.3545
▁internett	-10.3546
avtalen	-10.3551
▁34	-10.3557
▁prinsippet	-10.3562
▁mekanisk	-10.3565
▁forbindelser	-10.3569
▁rødt	-10.3571
▁grunner	-10.3572
▁situasjon	-10.3573
art	-10.3573
▁forbud	-10.3576
18	-10.3578
løse	-10.3581
▁hull	-10.3581
▁rene	-10.3583
▁1927	-10.3585
▁adolf	-10.3586
▁åndelig	-10.3587
▁debatt	-10.3588
▁arbeidere	-10.3588
▁hunder	-10.3593
▁årsaker	-10.36
saken	-10.3601
▁varianter	-10.3601
arbeid	-10.3606
▁brasil	-10.3606
▁straks	-10.3606
skole	-10.3607
▁alkohol	-10.3607
▁ns	-10.3609
▁herre	-10.3615
▁borgere	-10.3616
▁struktur	-10.3617
▁skjedd	-10.3624
▁grader	-10.3626
▁isteden	-10.3631
▁merket	-10.3638
▁fysiske	-10.364
▁british	-10.3647
▁hørte	-10.3648
▁lede	-10.3648
▁1926	-10.3654
▁revolusjonen	-10.3656
▁kontinuerlig	-10.3657
▁forut	-10.3658
tall	-10.3658
▁fløy	-10.367
▁avslørt	-10.3677
▁rykte	-10.3677
▁femte	-10.3679
▁hest	-10.3681
▁spansk	-10.3682
▁menneskelige	-10.3682
▁kongelig	-10.3687
▁klokken	-10.3688
▁skrift	-10.3695
▁1921	-10.3704
▁ild	-10.3705
▁vokser	-10.3707
▁eventuel	-10.3708
▁fremfor	-10.3709
▁dynasti	-10.3711
▁utlandet	-10.3712
gård	-10.3714
asia	-10.3714
▁hente	-10.3717
▁sjef	-10.3717
▁avholdt	-10.3718
▁viking	-10.3721
▁levere	-10.3721
-1	-10.3726
▁systematisk	-10.3728
▁oksygen	-10.3732
▁identitet	-10.3733
▁gu	-10.3735
▁familier	-10.3738
▁aviser	-10.3745
▁overgangen	-10.3747
▁bonde	-10.3747
▁33	-10.3752
ister	-10.3753
▁kampene	-10.3758
▁absolutt	-10.3767
▁oppfatte	-10.3769
su	-10.3773
▁bronse	-10.3773
▁college	-10.3775
▁fase	-10.3779
fjorden	-10.3779
▁pre	-10.3783
syn	-10.3785
▁tom	-10.3787
▁bevisst	-10.379
▁forlatt	-10.3793
▁forsvare	-10.3793
▁29	-10.3795
▁elektronisk	-10.3795
▁uavhengige	-10.3795
▁alvorlige	-10.38
▁rollen	-10.3807
▁forventet	-10.3808
▁hjerte	-10.3808
▁fanget	-10.3809
▁selskaper	-10.3809
▁risiko	-10.3815
▁king	-10.3815
▁gro	-10.3821
far	-10.3826
▁bygning	-10.3826
▁ed	-10.3831
▁bygges	-10.3831
▁måned	-10.3831
▁menneskelig	-10.3831
▁anerkjente	-10.3834
uk	-10.3842
▁opprettholde	-10.3847
vin	-10.3849
▁svekket	-10.3852
▁anklaget	-10.3853
▁inngått	-10.3853
▁naturen	-10.3854
▁hersker	-10.386
▁kar	-10.386
▁østerriksk	-10.3868
▁ideer	-10.3869
▁moralsk	-10.3874
▁oscar	-10.3886
▁virkning	-10.3887
her	-10.3888
▁negative	-10.3889
▁kjærlighet	-10.389
▁musikken	-10.3891
▁1923	-10.3894
▁erstatning	-10.3897
-18	-10.3897
▁verdien	-10.3901
▁jobbet	-10.3907
fri	-10.3909
skolen	-10.3909
▁motsatte	-10.391
▁anlagt	-10.3911
▁my	-10.3912
▁bortimot	-10.3933
▁vogner	-10.3939
▁1908	-10.394
▁reformasjonen	-10.3942
▁vite	-10.3949
▁bryte	-10.3957
▁automatisk	-10.3958
vo	-10.3961
▁sjøen	-10.3962
knyttet	-10.3963
▁lee	-10.3963
traktaten	-10.3968
▁song	-10.3969
virksomhet	-10.397
sel	-10.3974
▁65	-10.3974
▁positiv	-10.3978
▁langvarig	-10.398
plan	-10.3983
▁vanligst	-10.3984
▁produkter	-10.3984
▁snakk	-10.3987
▁sies	-10.3992
▁kommisjonen	-10.3998
▁kjøretøy	-10.4
▁havnen	-10.4001
stil	-10.4008
▁flytende	-10.4019
▁hendelsen	-10.4027
▁utvide	-10.4028
ci	-10.4033
▁un	-10.4035
▁festning	-10.4052
▁sikkerhets	-10.4052
▁selvmord	-10.4058
▁kurs	-10.4059
fattet	-10.4061
gang	-10.4063
▁port	-10.4064
▁oppgaver	-10.4073
▁uke	-10.4075
gruppe	-10.4077
▁venezia	-10.4079
du	-10.4084
▁kildene	-10.4094
▁blei	-10.4096
▁bære	-10.4096
▁society	-10.41
▁kongene	-10.4103
▁produksjons	-10.4104
▁avstanden	-10.4115
▁bu	-10.4116
▁positive	-10.4124
ari	-10.4125
▁nytte	-10.4128
sted	-10.4128
▁kjernen	-10.4129
▁skilt	-10.4139
▁mo	-10.414
▁slippe	-10.4147
▁grå	-10.4147
org	-10.4153
▁fiendtlig	-10.4155
▁fysikk	-10.4159
▁innlemme	-10.4167
▁1925	-10.4167
▁oppnådde	-10.4168
▁muligheter	-10.4169
▁nedenfor	-10.4173
▁1907	-10.4181
▁autoritet	-10.419
▁solid	-10.419
alt	-10.4196
▁tallrike	-10.4198
▁gjentatt	-10.4198
▁syd	-10.4199
▁times	-10.4202
tyder	-10.4203
▁strategisk	-10.4204
bra	-10.4206
ab	-10.421
▁bjørn	-10.4212
▁meldt	-10.4221
▁damp	-10.4225
▁drama	-10.4228
▁gjenstander	-10.423
▁ole	-10.4234
▁lengst	-10.4239
▁avdeling	-10.424
▁hydrogen	-10.4241
▁pa	-10.4241
▁regner	-10.4244
▁konfidens	-10.4245
▁kanal	-10.4246
▁persia	-10.4247
▁sender	-10.4247
▁strekningen	-10.426
wa	-10.4262
▁mørk	-10.4265
▁arrangere	-10.4269
▁fjellet	-10.427
ord	-10.4271
▁universitets	-10.4275
ordenen	-10.4276
▁borg	-10.4276
▁frekvens	-10.4277
likevel	-10.428
▁ment	-10.4285
▁verken	-10.4288
▁leiren	-10.4293
▁moskva	-10.4294
▁south	-10.4303
▁teologi	-10.4305
▁luften	-10.4318
iv	-10.4324
▁begynt	-10.4325
▁anlegget	-10.4327
▁betong	-10.4333
▁faller	-10.4335
▁foreldre	-10.434
▁utgaven	-10.4345
▁kristus	-10.4348
▁gjeldende	-10.4351
▁mel	-10.4358
▁sverre	-10.4362
▁demokrati	-10.4368
▁beskrivelse	-10.4368
▁signert	-10.4374
▁war	-10.4378
▁jordbruk	-10.4381
▁invasjonen	-10.4381
▁lund	-10.4381
▁trøndelag	-10.4385
▁preg	-10.4391
▁normal	-10.4391
nett	-10.4393
▁unionen	-10.4396
▁hvorfor	-10.4397
▁scene	-10.4414
▁akku	-10.4417
▁selge	-10.4417
▁nordvest	-10.4418
▁diplomatisk	-10.4428
borg	-10.443
▁38	-10.4431
▁brannen	-10.4432
anlegg	-10.4432
lov	-10.4433
gjennom	-10.4438
▁gruppene	-10.4442
trakk	-10.4445
▁nordmenn	-10.4446
▁institutt	-10.4451
▁skudd	-10.4451
▁løs	-10.4453
▁virkelig	-10.4456
ana	-10.4458
▁nettverk	-10.4461
▁regioner	-10.4462
▁normandie	-10.4467
▁økonomien	-10.447
▁bringe	-10.4474
▁ge	-10.4475
▁hard	-10.4476
▁oversikt	-10.4476
▁sammenhengen	-10.4477
▁starter	-10.4479
eparten	-10.4483
han	-10.4485
▁innfødte	-10.4486
ü	-10.4488
▁history	-10.4491
▁grep	-10.4493
▁foregikk	-10.4495
perioden	-10.4495
}	-10.4495
▁eventyr	-10.4499
▁bygningene	-10.4499
▁arbeiderpartiet	-10.45
▁so	-10.4504
▁oxford	-10.4505
▁koloni	-10.451
▁kunstnere	-10.4512
▁oppfordre	-10.4517
▁hagen	-10.4521
▁alfred	-10.4527
▁eiendommer	-10.4527
▁konkurrere	-10.4542
▁mar	-10.4543
▁ma	-10.4547
▁mektige	-10.455
▁setter	-10.4552
▁variert	-10.4556
▁materialer	-10.456
▁skyld	-10.4565
▁korrekt	-10.457
10	-10.457
▁jacob	-10.4572
▁plante	-10.4577
▁tårn	-10.4579
▁seksuell	-10.4581
▁fortelling	-10.4582
▁klær	-10.4583
▁1890	-10.4586
▁vogn	-10.4586
▁partene	-10.4587
▁josef	-10.4588
lagt	-10.4591
▁dna	-10.4596
▁måne	-10.4597
▁resultater	-10.4597
var	-10.4598
▁forening	-10.4606
▁redaktør	-10.4607
▁modeller	-10.4609
▁bøkene	-10.4611
len	-10.4612
▁forstand	-10.4616
▁hjalp	-10.4617
▁ytterst	-10.4619
▁kriger	-10.4619
▁1909	-10.462
▁ridder	-10.4622
▁stemmerett	-10.4624
''-	-10.4624
▁mary	-10.4625
▁gods	-10.4625
▁redde	-10.4631
▁beijing	-10.4642
▁adskilt	-10.4643
▁eks	-10.4643
▁44	-10.4644
▁assosiert	-10.4645
shire	-10.4652
▁stund	-10.4652
▁avsatt	-10.4654
▁tjent	-10.4659
ved	-10.4666
▁helhet	-10.4666
▁figuren	-10.4667
▁forklaring	-10.467
▁oppgitt	-10.4678
▁elever	-10.4683
▁regi	-10.4686
▁glass	-10.4688
▁isolert	-10.4693
▁kontinentet	-10.4701
▁utforme	-10.4701
▁led	-10.4703
▁aktiviteter	-10.4708
▁inntekter	-10.4709
▁base	-10.4709
▁krets	-10.4709
tog	-10.4709
▁rask	-10.4709
▁we	-10.471
▁unn	-10.4711
▁etterkommere	-10.4713
▁1100-	-10.4717
▁styrken	-10.4718
år	-10.4719
▁regionale	-10.4725
kirken	-10.4729
▁reisen	-10.4731
▁vedtak	-10.4733
sjøen	-10.4742
▁borte	-10.4743
▁straff	-10.4747
▁rang	-10.475
del	-10.4757
▁olsen	-10.4764
▁eksport	-10.4769
gan	-10.4772
▁1901	-10.4772
lignende	-10.4774
▁stamme	-10.4777
▁lukket	-10.478
▁prosesser	-10.4782
▁landområder	-10.4788
▁ettertid	-10.4788
type	-10.4794
▁1931	-10.4797
▁fattige	-10.4797
ster	-10.4805
▁øye	-10.4807
ski	-10.481
▁sammensatt	-10.4812
▁folkeavstemning	-10.4821
drift	-10.4821
mat	-10.4823
▁shakespeare	-10.4824
gjorde	-10.4825
▁samfunns	-10.483
▁tenkt	-10.4831
ettopp	-10.4834
▁eventuell	-10.4838
▁innholdet	-10.4839
▁synlig	-10.4841
▁kanon	-10.4844
▁jobb	-10.4844
▁variere	-10.4846
▁konstantinopel	-10.4847
▁ortodoks	-10.4848
▁akademisk	-10.485
▁komet	-10.4853
▁42	-10.4856
▁deles	-10.4862
▁avdekket	-10.4864
isering	-10.4867
▁borger	-10.4872
▁strøk	-10.4873
▁elektroner	-10.4873
trådte	-10.488
▁andreas	-10.4887
▁us	-10.4887
▁driften	-10.4888
▁ho	-10.4889
▁renessansen	-10.4893
▁1924	-10.49
liv	-10.4901
▁region	-10.4906
▁inter	-10.4911
▁trans	-10.492
▁skjult	-10.4923
▁misjonærer	-10.4924
▁1814	-10.4931
▁frukt	-10.4931
▁forsterket	-10.4938
▁markere	-10.4939
kraft	-10.4942
▁takket	-10.4949
▁ødelegge	-10.4951
▁kapp	-10.4953
▁fjær	-10.4954
▁os	-10.4956
klere	-10.4956
▁artikkelen	-10.4962
handlinger	-10.4962
▁enden	-10.4965
▁atom	-10.4965
bb	-10.4971
▁can	-10.4975
▁etableringen	-10.4988
hvert	-10.4988
▁stoppe	-10.4993
;	-10.5001
▁utpekt	-10.5004
▁returnert	-10.5006
▁skandinavia	-10.5007
bro	-10.5007
▁borgerkrigen	-10.5011
▁castle	-10.5012
▁fenomen	-10.5015
▁ekstern	-10.5018
▁forlag	-10.503
▁black	-10.503
▁tvers	-10.5032
▁ferdinand	-10.5032
▁samene	-10.5034
▁velger	-10.5037
he	-10.5039
hu	-10.504
▁bunn	-10.504
råd	-10.5044
▁karbon	-10.505
▁ender	-10.5064
fl	-10.5065
veien	-10.5068
programmet	-10.507
▁anna	-10.507
ah	-10.5073
▁flykte	-10.5074
ck	-10.5075
▁line	-10.5076
▁forbli	-10.5076
▁invitert	-10.5083
▁zealand	-10.5083
ois	-10.5085
▁48	-10.5086
▁bibliotek	-10.5087
▁hold	-10.5088
▁vol	-10.5096
▁kravet	-10.5098
▁levetid	-10.5098
▁partikler	-10.5099
▁vende	-10.51
▁kjerne	-10.5104
▁personen	-10.5104
▁kunstnerisk	-10.5105
▁frank	-10.5107
▁faktum	-10.5109
▁armé	-10.5111
dag	-10.5118
▁tri	-10.512
▁forsyninger	-10.512
bil	-10.5122
▁fylt	-10.5123
▁løsningen	-10.513
▁sp	-10.5141
▁mønster	-10.5141
▁house	-10.5141
bygg	-10.5145
▁37	-10.515
▁hell	-10.5153
▁nordøst	-10.5157
so	-10.5158
▁brun	-10.517
▁konflikter	-10.5179
sammen	-10.5184
fer	-10.5186
slo	-10.5187
▁påvirker	-10.5187
▁skatte	-10.5188
▁indiske	-10.5188
▁bibel	-10.5189
produksjonen	-10.5189
▁oppgaven	-10.5193
▁detaljert	-10.5196
▁politikken	-10.5198
▁bay	-10.5198
▁formel	-10.5199
▁front	-10.5201
▁poesi	-10.5206
▁sikkert	-10.5211
▁øvrig	-10.5211
▁vitner	-10.5213
▁1899	-10.5217
▁solsystemet	-10.5218
▁referanse	-10.5219
ot	-10.5223
▁detaljer	-10.5226
▁konseptet	-10.5226
▁jazz	-10.5229
▁forsknings	-10.5234
ator	-10.5235
▁bur	-10.5241
▁skildre	-10.5243
▁tempel	-10.5245
▁sees	-10.5246
▁700	-10.5248
▁ekte	-10.5251
▁31	-10.5253
▁stengt	-10.5268
▁isabella	-10.527
▁effektivt	-10.5274
▁atferd	-10.5278
▁holdes	-10.5279
▁modellen	-10.5283
▁kristiansand	-10.5286
▁overta	-10.5286
▁syke	-10.5287
▁pund	-10.5294
▁nød	-10.5305
▁utøve	-10.5306
▁potter	-10.5309
▁handlet	-10.5314
▁katolikker	-10.5316
sp	-10.5322
▁mulige	-10.5328
sesongen	-10.5331
bane	-10.5333
▁moren	-10.535
▁fuglene	-10.5353
▁konsekvenser	-10.5355
▁hevde	-10.5356
▁skilte	-10.536
▁kommunikasjon	-10.536
fa	-10.5363
▁lars	-10.5363
▁85	-10.5365
ek	-10.5371
▁science	-10.5371
pass	-10.5378
▁psykisk	-10.5379
▁trussel	-10.5387
▁ph	-10.5388
bus	-10.5392
▁adam	-10.5393
▁hastigheten	-10.5402
▁kontrollerte	-10.5403
▁opplysninger	-10.5405
▁farger	-10.5415
king	-10.5417
▁parlament	-10.5422
ok	-10.5424
trykk	-10.5429
▁margaret	-10.5431
▁presidenten	-10.5432
ang	-10.5435
▁tilbud	-10.5436
▁1848	-10.544
▁litauen	-10.5448
▁ligge	-10.5449
plassen	-10.5449
tu	-10.5452
▁scenen	-10.5452
▁forskerne	-10.5455
con	-10.5455
▁basis	-10.5456
▁materialet	-10.5458
▁kobber	-10.5458
▁utseende	-10.5465
up	-10.5466
▁analyse	-10.5475
▁israelsk	-10.5479
▁dit	-10.5479
meter	-10.5489
forholdene	-10.5489
▁portugisisk	-10.5494
skip	-10.5497
yl	-10.5499
historie	-10.5501
▁rådet	-10.5505
▁sicilia	-10.5508
▁erobringen	-10.5511
▁høyden	-10.5511
▁1904	-10.5517
▁guvernør	-10.5519
ologi	-10.5519
▁sørøst	-10.552
ani	-10.552
▁germanske	-10.5523
ris	-10.5524
nivå	-10.5525
▁39	-10.5526
▁permanent	-10.5535
▁cor	-10.5536
▁oppløsning	-10.5541
▁faktor	-10.5542
▁radikale	-10.5543
▁grønland	-10.5549
▁plate	-10.5554
▁street	-10.5557
▁kvelden	-10.5558
▁utnyttet	-10.5558
▁hender	-10.5559
▁sank	-10.5561
▁utførte	-10.5563
▁stilen	-10.5564
▁ali	-10.5566
▁tolkning	-10.5566
▁dommen	-10.557
▁flertallet	-10.5576
▁tyskere	-10.5579
▁samlingen	-10.558
▁east	-10.5583
ach	-10.5584
▁interessert	-10.5585
▁utenom	-10.5586
▁dypt	-10.5594
▁synet	-10.5596
▁parken	-10.5597
▁sjeldne	-10.5599
▁muntlig	-10.5599
▁prix	-10.56
▁tendens	-10.5601
▁fabrikken	-10.5603
▁sarpsborg	-10.5605
▁oppnådd	-10.5605
▁freden	-10.5606
ies	-10.5608
▁båter	-10.5614
▁regne	-10.5616
▁mannen	-10.5623
▁posisjonen	-10.5624
mon	-10.5632
▁olympisk	-10.5634
▁krysset	-10.5634
▁farao	-10.5636
▁erobre	-10.5638
ket	-10.564
▁konflikten	-10.564
▁brown	-10.5641
▁globale	-10.5642
▁atmosfære	-10.5645
▁simon	-10.5648
▁voksend	-10.5649
▁skuespill	-10.5649
▁spre	-10.5649
forbund	-10.565
▁sv	-10.5651
▁service	-10.5652
▁ekspedisjon	-10.5652
cal	-10.5653
ningen	-10.5655
▁prosjekter	-10.566
industrien	-10.566
▁taket	-10.5671
▁generator	-10.5672
mor	-10.568
▁pp	-10.5681
▁bull	-10.5682
▁francis	-10.5689
▁landsbyen	-10.5689
▁føderal	-10.5695
▁biblioteket	-10.5699
▁opplæring	-10.5702
▁daniel	-10.5702
▁eiendommen	-10.5704
chi	-10.5709
▁trær	-10.5709
▁sort	-10.5712
▁fellesskap	-10.5715
▁franskmennene	-10.5716
▁finans	-10.5718
▁osv	-10.5718
▁nordland	-10.5722
vann	-10.5729
▁tømmer	-10.5737
▁annonsert	-10.5738
buss	-10.5739
od	-10.5742
▁tropisk	-10.5746
▁geologi	-10.5746
▁rotere	-10.5753
dom	-10.5755
▁operasjon	-10.5756
ho	-10.5758
▁kapital	-10.576
▁finn	-10.576
▁uklart	-10.5764
all	-10.5765
ze	-10.577
▁utvalg	-10.5771
▁utløst	-10.5776
▁tids	-10.5778
▁shackleton	-10.578
elle	-10.578
▁listen	-10.5783
▁ligner	-10.5791
rett	-10.5791
▁ovenfor	-10.5797
▁havnet	-10.5799
▁representant	-10.5801
▁dannelsen	-10.5802
▁euro	-10.5802
▁marinen	-10.5804
etter	-10.5808
▁q	-10.5816
▁etnisk	-10.5816
▁dyrket	-10.5818
▁act	-10.5823
▁stykket	-10.5823
▁diskutert	-10.5825
▁møtt	-10.5835
formet	-10.5835
▁lavest	-10.5837
▁åpenbart	-10.5838
▁1400-	-10.5839
ding	-10.5843
▁palmer	-10.5844
kan	-10.5845
felt	-10.5847
▁stasjon	-10.5848
sin	-10.5851
bygget	-10.5856
▁bispedømme	-10.586
▁marie	-10.586
▁sir	-10.5861
▁forsvars	-10.5868
▁kommunistiske	-10.5869
▁beholde	-10.587
▁100-	-10.587
▁sovjet	-10.5875
▁drivstoff	-10.5883
▁støtter	-10.5886
▁identifisere	-10.5894
▁beskjed	-10.5898
▁kjønn	-10.5898
▁vitne	-10.5899
▁fns	-10.5907
▁kortvarig	-10.5911
▁kraften	-10.5915
▁miljøet	-10.5919
▁regulert	-10.5924
▁estland	-10.5925
▁bredt	-10.5933
prisen	-10.5933
▁ivar	-10.5936
▁navnene	-10.5938
▁slott	-10.5938
▁last	-10.5943
▁innslag	-10.5943
▁århundrer	-10.5946
▁with	-10.595
▁føde	-10.5957
selskapet	-10.5965
krevende	-10.597
▁generasjon	-10.5973
▁prøver	-10.5974
▁sitter	-10.5986
▁you	-10.599
▁bodø	-10.5998
▁pan	-10.5999
▁don	-10.6
▁boliger	-10.6
▁motorer	-10.6006
▁bestilt	-10.6007
▁aktuelle	-10.6008
▁herjet	-10.601
elektromagnetisk	-10.6011
gården	-10.6015
gren	-10.6021
▁arabisk	-10.6022
▁die	-10.6026
▁slapp	-10.6026
▁annerledes	-10.6027
hold	-10.6027
tz	-10.6027
▁foreldrene	-10.6028
▁genetisk	-10.6029
▁fastlandet	-10.603
▁unnta	-10.6032
▁politikere	-10.6034
delen	-10.6036
▁gjenstand	-10.6036
▁peker	-10.6044
▁500-	-10.6049
▁artikler	-10.605
▁østlandet	-10.6058
▁veg	-10.606
kysten	-10.6061
▁vakt	-10.6062
▁oppfatning	-10.6062
▁hovedkvarter	-10.6064
▁wilson	-10.6065
▁ånd	-10.6067
▁lewis	-10.6074
ju	-10.6075
▁derfra	-10.6076
▁vesten	-10.6077
▁guder	-10.6077
transport	-10.6077
▁walter	-10.6078
▁forbedre	-10.608
▁skyte	-10.6082
▁oppstå	-10.6083
▁och	-10.6084
▁white	-10.6085
▁himmelen	-10.6088
▁liberale	-10.6092
▁undersøke	-10.6096
områder	-10.6097
▁finalen	-10.6098
▁tromsø	-10.61
▁drap	-10.6103
mannen	-10.6104
▁kent	-10.6105
▁programmer	-10.6105
▁motta	-10.6107
▁sluppe	-10.6109
▁wikipedia	-10.6115
▁gallia	-10.6116
▁vilkår	-10.6117
▁utbygging	-10.612
organisasjon	-10.6123
▁lavt	-10.6125
▁myrdet	-10.6126
▁kulturer	-10.6129
▁sammenhenger	-10.6132
▁leksikon	-10.6139
▁andelen	-10.6141
▁brakte	-10.6141
▁våre	-10.6143
▁rekkevidde	-10.6144
▁rimelig	-10.6145
▁opprettholdt	-10.6147
▁reglene	-10.6149
▁kontrakt	-10.6155
▁flukt	-10.6157
vei	-10.6157
▁uenighet	-10.616
▁testamente	-10.6161
▁vokse	-10.6161
▁partiene	-10.6162
▁rik	-10.6163
▁nasjonalt	-10.6164
▁fødsel	-10.6172
▁1902	-10.6175
▁ungdoms	-10.6177
▁hamburg	-10.6177
▁beregne	-10.6187
▁aleksander	-10.6189
▁forbund	-10.6189
▁reduksjon	-10.6191
▁festet	-10.6192
menn	-10.6194
▁opphevet	-10.6195
▁avslutte	-10.6198
▁nabo	-10.62
▁bysantinsk	-10.6206
▁1903	-10.6207
▁statene	-10.6207
▁peder	-10.6213
air	-10.6213
ine	-10.6218
▁bussene	-10.6219
▁stemt	-10.6221
▁anerkjenne	-10.6223
▁sammenligning	-10.6226
baserte	-10.6233
▁bayern	-10.6233
▁konsekvens	-10.6242
▁bedrifter	-10.625
▁argumenter	-10.6252
▁retningen	-10.6259
▁1300-	-10.6261
▁undersøkt	-10.6262
▁1889	-10.6263
▁1896	-10.6263
▁forskjeller	-10.6266
sta	-10.6267
▁avgjøre	-10.6276
▁indikerer	-10.6281
▁produserer	-10.6281
▁arkeologi	-10.6282
-2	-10.6285
ale	-10.6285
▁skala	-10.6285
▁1850	-10.6286
ini	-10.6286
▁kaste	-10.6286
▁handle	-10.6287
▁vannkraft	-10.6288
▁slave	-10.6289
▁sten	-10.6289
▁komplekse	-10.6289
▁vesen	-10.6291
▁konkret	-10.6292
▁lufthavn	-10.6294
▁49	-10.6294
▁kongedømme	-10.6301
▁sal	-10.6305
mm	-10.6307
verket	-10.631
▁løfte	-10.6311
▁nevnte	-10.6323
▁fiender	-10.6325
▁fangene	-10.6326
▁böhmen	-10.633
▁sur	-10.6343
▁bestemme	-10.6347
motor	-10.6348
▁sankt	-10.6349
▁reddet	-10.6352
▁forholdsvis	-10.6353
▁negativ	-10.6353
▁sen	-10.6357
▁kardinal	-10.6359
▁armenia	-10.6359
▁boka	-10.6362
▁from	-10.6373
▁presten	-10.6376
▁lyse	-10.638
▁gjen	-10.6381
▁plutselig	-10.6382
▁beachhåndball	-10.6382
▁konkurs	-10.6384
▁formann	-10.6385
▁keramikk	-10.6386
▁hemmelig	-10.6386
serie	-10.6386
▁refererer	-10.6391
▁myr	-10.6398
▁marked	-10.6399
▁nils	-10.64
▁sverd	-10.64
▁motstandere	-10.6402
▁skjøt	-10.6405
▁dårlige	-10.6406
▁musikalsk	-10.6408
▁francisco	-10.6414
▁kino	-10.6415
▁ventet	-10.6417
▁julius	-10.6418
▁hemmelige	-10.6422
▁2000-	-10.6431
deler	-10.6434
▁mannskapet	-10.6434
▁grunnlov	-10.6435
mu	-10.6442
indirekte	-10.6443
▁interessen	-10.645
▁douglas	-10.6451
trøndelag	-10.6452
▁nedover	-10.6453
▁geometri	-10.6455
▁ulik	-10.6464
▁lederne	-10.6466
▁vurdering	-10.6469
▁tyde	-10.6474
▁mu	-10.6475
▁vellykket	-10.6477
▁minner	-10.6486
▁vinner	-10.6487
▁felttog	-10.649
▁erobring	-10.649
▁kontor	-10.6492
▁kommando	-10.6493
▁oversettelsen	-10.6493
▁påvist	-10.6497
▁feiret	-10.65
▁tyngre	-10.6504
▁cambridge	-10.6504
▁arbeiderne	-10.6506
▁funksjoner	-10.6513
▁borgerkrig	-10.6514
▁ch	-10.6516
▁plassering	-10.6518
program	-10.6527
▁aftenposten	-10.6529
▁1898	-10.6532
▁knap	-10.6533
▁video	-10.6541
▁fremstilt	-10.6542
▁ødela	-10.6545
▁ungdom	-10.6549
▁brede	-10.6549
systemer	-10.6551
▁betalt	-10.6557
▁relatert	-10.6557
▁dominert	-10.6559
▁provins	-10.6562
▁nato	-10.657
▁arv	-10.6573
▁klage	-10.6574
▁ke	-10.6574
▁sogn	-10.6576
▁jule	-10.658
▁løst	-10.658
▁jernverk	-10.6583
▁styrket	-10.6589
ortsett	-10.6593
sjon	-10.6595
▁nærings	-10.6596
▁ffk	-10.6597
▁cuba	-10.6601
lu	-10.6601
▁nettet	-10.6603
▁manglet	-10.6604
▁akseptere	-10.6604
▁motiver	-10.6604
▁kontrollert	-10.6604
▁inntrykk	-10.661
▁malt	-10.661
musikk	-10.6613
rådet	-10.6614
▁beslektet	-10.6616
▁alliert	-10.6622
▁luther	-10.6622
▁lovlig	-10.6622
▁målt	-10.6624
▁striden	-10.6625
▁green	-10.6626
▁firenze	-10.6627
▁pil	-10.6628
▁test	-10.6629
▁seiner	-10.6631
typen	-10.6633
istiske	-10.6635
▁64	-10.6637
▁regimet	-10.664
▁framover	-10.664
▁stede	-10.6644
▁jesuittene	-10.6645
▁omkom	-10.6646
▁montert	-10.6646
▁høydepunkt	-10.6647
▁straffe	-10.6649
▁arm	-10.6651
▁forbi	-10.6654
▁old	-10.666
▁1,	-10.6663
á	-10.6663
▁sykdommen	-10.6664
▁hk	-10.667
▁jorda	-10.6671
rommet	-10.6674
▁etasje	-10.6677
▁motstanden	-10.6678
▁faktorer	-10.6681
▁konsert	-10.6684
▁stoffer	-10.6685
▁biskopen	-10.6685
▁graden	-10.6686
▁baron	-10.6689
▁lokalisert	-10.669
▁havn	-10.669
▁kommuner	-10.6694
▁regjerings	-10.67
▁tele	-10.67
▁rapporterte	-10.6701
&	-10.6701
▁framstilt	-10.6704
▁utforming	-10.6705
age	-10.671
linje	-10.6717
▁integrert	-10.6722
alderen	-10.6722
▁vises	-10.6732
▁videreført	-10.6733
▁rapporten	-10.6734
▁anders	-10.6736
▁bevare	-10.6736
▁tungt	-10.6742
▁sel	-10.6745
▁myndighet	-10.6746
▁inspirasjon	-10.6746
▁ofre	-10.6747
▁volum	-10.6747
▁vente	-10.6747
▁insekter	-10.6756
▁sparta	-10.6766
▁båten	-10.6767
▁skips	-10.677
▁anker	-10.677
▁oppstått	-10.6774
▁tempelet	-10.6775
par	-10.6776
▁toll	-10.6777
▁slett	-10.6778
▁north	-10.678
▁folkelig	-10.678
▁jobbe	-10.6782
▁forbruk	-10.6784
▁variant	-10.6785
▁tung	-10.6785
▁eksistens	-10.6786
markedet	-10.679
ras	-10.679
▁vestover	-10.6791
▁øyne	-10.6794
▁menigheten	-10.6799
▁muslimer	-10.68
gangen	-10.6805
▁stjernen	-10.6805
▁dø	-10.6806
▁bosetning	-10.6806
▁larsen	-10.681
▁innvandring	-10.6811
▁filosofiske	-10.6812
leder	-10.6818
▁kompetanse	-10.6819
▁forbedret	-10.6819
▁sig	-10.6821
▁utenriks	-10.6821
▁røtter	-10.6823
tiske	-10.6827
▁doktorgrad	-10.6838
▁samlede	-10.6843
pasienter	-10.6849
▁likt	-10.6856
▁klarer	-10.6858
tal	-10.686
ven	-10.686
havet	-10.6866
aw	-10.6866
direktoratet	-10.6872
▁gibraltar	-10.6873
▁tilbød	-10.6877
▁spiser	-10.6878
▁anatolia	-10.6878
▁fredrikstad	-10.6879
▁52	-10.688
dommer	-10.6882
▁håpet	-10.6884
bundet	-10.6885
▁regn	-10.6888
landet	-10.6889
▁fokusere	-10.689
▁force	-10.6896
post	-10.6897
▁seire	-10.6897
▁priser	-10.6899
▁fengslet	-10.6923
▁reformer	-10.6928
istisk	-10.6933
pris	-10.6934
▁plassen	-10.6935
▁skatter	-10.6936
▁radikal	-10.6936
▁fangenskap	-10.6942
▁virkelige	-10.6942
▁ballen	-10.6946
▁smak	-10.695
▁undervisning	-10.6952
▁husene	-10.6953
▁elektron	-10.6955
ierende	-10.6959
mus	-10.6961
▁konkluderte	-10.6963
▁høyesterett	-10.6967
teknologi	-10.697
▁folkemord	-10.6976
valg	-10.6979
▁seieren	-10.6981
senter	-10.6982
▁industriell	-10.6991
dy	-10.6994
nd	-10.6994
▁kontrast	-10.6996
▁broren	-10.6999
kunst	-10.7001
ow	-10.7002
▁elisabeth	-10.7004
▁1800	-10.7006
▁kropp	-10.7007
▁chicago	-10.7008
▁nyttig	-10.7009
▁drikke	-10.701
ku	-10.7011
▁flat	-10.7012
▁torv	-10.7015
▁beslutning	-10.7018
▁ex	-10.7018
▁moss	-10.702
ben	-10.7021
▁sikte	-10.7031
hl	-10.7032
▁opposisjon	-10.7036
▁atlanterhavet	-10.7037
▁håndtere	-10.7037
▁trykt	-10.7037
able	-10.7039
givende	-10.7041
tra	-10.7047
lsen	-10.7051
▁forutsetning	-10.706
▁islamsk	-10.7065
▁bestanden	-10.7069
▁blomster	-10.7072
▁problemene	-10.7073
▁sykdommer	-10.7073
▁frø	-10.7077
▁56	-10.7082
▁who	-10.7084
▁øynene	-10.7085
året	-10.7086
▁domstol	-10.7091
▁sannsynlighet	-10.7102
▁na	-10.7102
▁66	-10.7103
af	-10.7103
▁propaganda	-10.7106
▁nærliggende	-10.7107
▁produkt	-10.7114
▁bedriften	-10.7117
▁utgivelsen	-10.7117
▁verksted	-10.7118
▁primært	-10.712
▁morgenen	-10.712
fe	-10.7124
dan	-10.7128
▁tilstedeværelse	-10.7134
▁graver	-10.7137
▁utstedt	-10.7138
▁46	-10.7148
▁omvendt	-10.7149
▁oppdagelsen	-10.715
har	-10.7152
▁human	-10.7163
isert	-10.7166
▁angivelig	-10.7166
▁bru	-10.7169
▁datiden	-10.7169
if	-10.7171
▁hensikten	-10.7177
▁reform	-10.7178
▁51	-10.7184
http	-10.7185
▁1897	-10.7191
modellen	-10.7191
heten	-10.7191
▁søker	-10.7195
▁vegne	-10.7195
▁ekteskapet	-10.7198
▁idag	-10.7198
▁napoléon	-10.7199
▁utstrakt	-10.7199
cy	-10.7201
▁klimaet	-10.7202
▁val	-10.7205
isere	-10.7214
▁sub	-10.722
▁lyset	-10.722
▁sikt	-10.7225
tes	-10.7231
▁colton	-10.7233
film	-10.7235
▁tilnærming	-10.7241
ura	-10.7243
▁tjene	-10.7244
▁len	-10.7248
parten	-10.7248
▁kjøtt	-10.7249
▁gran	-10.725
ær	-10.7252
▁hill	-10.7255
▁regulering	-10.7258
▁antarktis	-10.7261
▁territorium	-10.7266
▁anslått	-10.7266
▁stridsvogner	-10.7267
▁uro	-10.7269
▁forbindelsen	-10.727
▁adgang	-10.7272
▁maskiner	-10.7272
▁bot	-10.7272
▁oppover	-10.7276
ap	-10.7276
▁jack	-10.7279
▁flyktninger	-10.7281
design	-10.7284
▁trinn	-10.7293
bert	-10.7293
▁guden	-10.7295
med	-10.7299
▁sau	-10.73
▁tørke	-10.7303
▁formelen	-10.7303
oc	-10.7305
våpen	-10.7307
▁overgang	-10.7308
▁frivillig	-10.7309
▁image	-10.731
ks	-10.7312
▁lån	-10.7313
kant	-10.7315
▁befolknings	-10.7316
▁observere	-10.7316
▁alternative	-10.7325
▁behandlingen	-10.7325
▁resultatene	-10.7326
▁overbevist	-10.7331
▁åpning	-10.7332
forskning	-10.7334
▁offiserer	-10.7338
▁sekunder	-10.7342
▁motiv	-10.7342
▁fjorden	-10.7353
ringen	-10.7355
▁vedkommende	-10.7358
tv	-10.736
▁leie	-10.7362
▁akershus	-10.7364
▁utbruddet	-10.7365
▁aristoteles	-10.7366
▁pattedyr	-10.7367
▁avløst	-10.7369
▁skjebne	-10.737
ö	-10.737
▁desto	-10.7373
▁fest	-10.7374
▁400-	-10.7377
▁troen	-10.7377
▁måle	-10.7379
▁platon	-10.7379
ismen	-10.738
▁grønne	-10.7381
▁antar	-10.7382
▁ungene	-10.7388
danner	-10.7388
▁gjeld	-10.7401
▁dato	-10.7404
▁overlevd	-10.7408
ak	-10.741
▁fienden	-10.741
▁lærde	-10.7412
▁strenge	-10.7413
▁romania	-10.7413
▁stalin	-10.7415
▁dronningen	-10.7416
▁objekt	-10.7419
▁politiker	-10.7419
▁300-	-10.7422
▁original	-10.7424
ary	-10.7427
▁lærte	-10.7428
▁litteraturen	-10.7432
▁strand	-10.7434
antallet	-10.7434
▁vanskelige	-10.7436
prosessen	-10.7437
▁river	-10.7438
kom	-10.744
▁oppholdt	-10.7441
▁church	-10.7445
▁forlenge	-10.7446
▁individuelle	-10.7462
▁ag	-10.7462
elig	-10.7466
▁lind	-10.7466
▁hamar	-10.7477
▁retninger	-10.7481
drevne	-10.7483
▁dalen	-10.7483
▁evans	-10.7484
▁formidle	-10.7485
▁presenterte	-10.7486
politikk	-10.7488
▁forsøket	-10.749
▁flate	-10.749
▁antikke	-10.7491
cus	-10.7498
▁jøde	-10.7498
▁medlemskap	-10.75
løp	-10.7501
▁1895	-10.7502
▁festival	-10.7503
▁opphørte	-10.7505
▁feire	-10.7509
▁popularitet	-10.7511
▁1000-	-10.7514
▁originale	-10.7521
▁selvstendighet	-10.7525
▁aker	-10.7527
mester	-10.753
▁påbegynt	-10.7532
▁traff	-10.7533
▁irsk	-10.7533
rige	-10.7534
▁legeme	-10.7536
▁association	-10.7536
▁selvstyre	-10.7537
▁definisjon	-10.7539
▁brødre	-10.7539
▁1500	-10.7543
▁utsagn	-10.7547
▁hud	-10.7549
▁profesjonelle	-10.7551
levende	-10.7556
▁hertugen	-10.7561
▁øl	-10.7563
▁roger	-10.7566
▁kravene	-10.7567
▁jomfru	-10.7568
▁satellitt	-10.7569
▁beskytter	-10.7569
▁beleiringen	-10.757
dratt	-10.7572
15	-10.7578
▁group	-10.7582
▁inntekt	-10.7583
▁vedlikehold	-10.759
fjord	-10.7592
▁rot	-10.7592
▁norrønt	-10.7593
▁pi	-10.7596
pro	-10.7599
▁beleire	-10.7601
▁firmaet	-10.7603
▁elite	-10.7604
pp	-10.7604
▁kunngjor	-10.7606
▁skrives	-10.7607
▁pol	-10.7608
▁verdifull	-10.761
gitt	-10.7612
▁dialog	-10.7616
▁potensial	-10.7617
▁records	-10.762
▁emner	-10.762
▁kalle	-10.7621
▁uran	-10.7622
▁sendes	-10.7624
sund	-10.7627
områdene	-10.7631
▁egenskapen	-10.7633
▁datteren	-10.7634
▁fremtredende	-10.7635
▁ball	-10.7637
▁holdning	-10.7637
▁ukraina	-10.7641
rør	-10.7641
▁bredde	-10.7644
▁anerkjennelse	-10.7645
▁farlig	-10.7652
▁slottet	-10.7667
▁bismarck	-10.7668
▁mangfold	-10.7668
▁forbød	-10.7668
▁offer	-10.7668
▁uttrykke	-10.7669
▁utdannet	-10.7673
▁manuskriptet	-10.7673
▁konstruksjonen	-10.7674
▁angi	-10.7674
▁ettertiden	-10.7678
▁makedonia	-10.7679
▁ordningen	-10.768
▁gress	-10.7681
▁psykologi	-10.7682
▁munn	-10.7682
▁organ	-10.7684
▁dominerte	-10.7691
▁napoli	-10.7693
▁tilhenger	-10.7697
▁fars	-10.7702
cha	-10.7706
▁holocaust	-10.7708
▁befan	-10.7708
▁viii	-10.7709
▁ry	-10.7709
▁rekord	-10.771
▁variasjon	-10.771
▁representere	-10.7718
▁tilgjengelige	-10.772
▁pierre	-10.7724
▁skritt	-10.7724
▁falle	-10.7726
▁sosialt	-10.7727
burg	-10.7733
▁reduseres	-10.7738
forening	-10.7741
▁elver	-10.7741
▁''(	-10.7742
▁ingenting	-10.7743
▁spesialisert	-10.7744
▁1880	-10.7745
▁ddr	-10.7747
▁smitte	-10.7748
▁ungarske	-10.7748
▁synke	-10.7748
sky	-10.7751
rum	-10.7759
▁41	-10.776
▁formålet	-10.7761
▁dukker	-10.7763
▁temperaturer	-10.7765
tro	-10.7766
▁bre	-10.7769
▁bryter	-10.777
▁angeles	-10.7772
rike	-10.7774
▁gunnar	-10.7778
▁takt	-10.7778
▁betalte	-10.7779
▁league	-10.7784
gata	-10.7784
▁spillerne	-10.7785
partiet	-10.7789
ug	-10.7791
▁endres	-10.7794
▁ac	-10.7794
fest	-10.7796
nummer	-10.7796
▁overlevende	-10.7798
▁eksemplarer	-10.7802
▁fenomenet	-10.7808
▁gotisk	-10.7812
▁punktet	-10.7814
▁chi	-10.7817
lia	-10.7818
▁kommentar	-10.782
▁aktiviteten	-10.7823
typer	-10.783
▁fullføre	-10.783
▁vurdere	-10.783
vær	-10.7831
kt	-10.7835
▁run	-10.7836
▁formet	-10.7838
▁nei	-10.7842
øyene	-10.7842
▁vestlig	-10.7843
▁ingeniør	-10.7844
-16	-10.7845
▁geologisk	-10.7846
▁perspektiv	-10.7846
▁importert	-10.7849
▁definisjonen	-10.7859
bel	-10.786
▁rein	-10.786
▁renessanse	-10.7866
▁sikker	-10.7867
▁armensk	-10.7871
▁vestlandet	-10.7879
▁australsk	-10.7883
▁middel	-10.7886
▁moral	-10.7886
løpet	-10.7888
▁administrative	-10.7893
▁mill	-10.7903
well	-10.7904
▁spilleren	-10.7906
▁militært	-10.7906
▁forløper	-10.7908
▁karosseri	-10.7908
▁invaderte	-10.791
▁etiopia	-10.7911
▁opptrådt	-10.7912
▁nære	-10.7913
utenriksminister	-10.7915
kamp	-10.7916
produkter	-10.7916
▁mineral	-10.7917
▁orkester	-10.7917
▁svake	-10.7918
▁ramme	-10.7923
,5	-10.7925
▁stoff	-10.7927
▁rund	-10.7934
▁posisjoner	-10.7936
▁element	-10.7937
▁henri	-10.7937
ino	-10.7941
▁800-	-10.7945
slaget	-10.7946
▁auschwitz	-10.7946
▁konsentrert	-10.7947
▁mc	-10.7951
▁fjord	-10.7952
▁forbinde	-10.7952
▁diskusjon	-10.7956
▁hit	-10.7957
▁mi	-10.7957
ey	-10.7957
▁spise	-10.7958
▁sveriges	-10.7958
van	-10.7959
▁raske	-10.7959
▁ektemann	-10.796
▁sørge	-10.7961
▁statistisk	-10.7972
fag	-10.7973
▁bedt	-10.7975
▁forberedt	-10.7982
tar	-10.7982
▁skogen	-10.7982
▁63	-10.7986
▁opptreden	-10.7987
tan	-10.7989
▁magnetfelt	-10.799
▁hevn	-10.8001
▁bill	-10.8002
▁900	-10.8002
elt	-10.8003
▁trafikken	-10.8004
▁max	-10.8008
▁hvitt	-10.8013
▁borgerlig	-10.8016
ish	-10.8016
...	-10.802
gir	-10.8023
▁bygnings	-10.8027
▁maskinen	-10.8027
2-	-10.8028
▁prestene	-10.8029
▁voksen	-10.8032
pl	-10.8032
▁hy	-10.8034
dd	-10.8035
byr	-10.8038
my	-10.804
▁bestemmer	-10.8046
▁hendelse	-10.8046
▁gyldig	-10.8047
▁valuta	-10.8047
▁franz	-10.8049
ya	-10.8051
▁halvøya	-10.8052
▁effektive	-10.8052
▁foreløpig	-10.8053
▁etterkrigstiden	-10.8053
sjef	-10.8053
▁rikard	-10.8053
▁intet	-10.8056
▁gruppa	-10.8057
▁strekning	-10.8057
▁halvt	-10.8062
▁journalist	-10.8065
▁kommunene	-10.8068
▁finansiell	-10.8069
▁67	-10.8072
▁ver	-10.8072
fører	-10.8073
▁alminnelig	-10.8077
wi	-10.8078
▁fo	-10.8082
▁victoria	-10.8087
▁fokusert	-10.809
sal	-10.8091
▁presentere	-10.8091
▁tidsskrift	-10.8092
▁tenke	-10.8095
▁seter	-10.8095
▁forkortet	-10.8096
▁følelser	-10.8098
▁hertugdømmet	-10.8099
▁erling	-10.8099
bøker	-10.8106
▁utføres	-10.8112
▁produsent	-10.8115
▁rådgiver	-10.8115
▁za	-10.8115
▁klubb	-10.8118
▁eksamen	-10.8119
▁lincoln	-10.8124
lys	-10.8125
▁54	-10.8127
▁markant	-10.8129
▁bass	-10.813
▁1860	-10.8132
▁biskoper	-10.8134
▁rapportert	-10.8134
▁strategi	-10.8138
▁bekjempe	-10.8139
▁master	-10.8141
▁ytelse	-10.8141
▁massen	-10.8143
▁telefon	-10.815
▁spe	-10.8151
▁dans	-10.8152
▁næring	-10.8152
▁tvinge	-10.8154
field	-10.8155
shi	-10.8157
▁usikkerhet	-10.8158
▁fler	-10.8159
▁münchen	-10.8162
▁rolf	-10.8164
▁afrikanske	-10.8165
▁musikere	-10.8166
▁versjoner	-10.8167
ska	-10.8168
▁nynorsk	-10.8173
▁may	-10.8174
▁skyldig	-10.8176
▁dal	-10.8183
▁blues	-10.8183
kanalen	-10.8183
▁positivt	-10.8184
▁herredømme	-10.8185
14	-10.8186
▁82	-10.8187
▁debatten	-10.82
▁signal	-10.8206
▁walisisk	-10.8206
▁fartøyet	-10.8207
kommende	-10.821
▁stykker	-10.8211
▁komedie	-10.8212
▁verktøy	-10.8213
▁fangst	-10.8218
▁monopol	-10.8223
29	-10.8224
▁tapet	-10.8228
▁veggen	-10.823
▁utstrekning	-10.8232
▁tilstede	-10.8236
▁arbeidskraft	-10.8237
▁hi	-10.8241
▁pasienten	-10.8243
▁team	-10.8243
ph	-10.8245
▁dyrene	-10.8245
▁kunnskapen	-10.825
▁kvinnen	-10.825
car	-10.8251
▁music	-10.8253
tor	-10.8254
▁ly	-10.8255
▁cæsar	-10.8255
▁steiner	-10.8255
▁high	-10.8262
tin	-10.827
sverre	-10.8272
val	-10.8273
▁åpningen	-10.8277
▁kalk	-10.8277
behandling	-10.8278
▁tillater	-10.8278
ds	-10.8278
▁ryggen	-10.8279
mb	-10.828
▁vegetasjon	-10.828
▁dialekt	-10.8281
▁fa	-10.8281
▁gen	-10.8285
▁imperiet	-10.8288
▁43	-10.8289
▁tiårene	-10.8291
▁satse	-10.8293
▁dahl	-10.8293
▁demonstrasjon	-10.8293
område	-10.8294
▁karakterisert	-10.8297
▁konstantin	-10.8301
▁gratis	-10.8306
▁passer	-10.8317
▁lagret	-10.8319
▁utvikler	-10.832
▁kjemiske	-10.832
▁selskapets	-10.8323
.000	-10.8335
▁eksistert	-10.8335
ula	-10.8336
▁folkene	-10.8341
▁alaska	-10.8342
▁show	-10.8344
▁helge	-10.8344
▁mal	-10.8346
▁komponist	-10.8349
sti	-10.8351
ky	-10.8353
▁synlige	-10.836
▁krigføring	-10.8361
▁fabrikk	-10.8362
▁600-	-10.8364
▁ross	-10.8365
▁kilden	-10.8365
▁overleve	-10.8368
▁eng	-10.8378
▁cohen	-10.838
▁1891	-10.8381
▁krise	-10.8382
▁sivil	-10.8386
▁opplevelse	-10.8386
▁parallell	-10.8388
▁skandinavisk	-10.8392
▁sete	-10.8393
▁anta	-10.8393
saker	-10.8394
▁fastsatt	-10.8394
▁that	-10.8394
regionen	-10.8396
basert	-10.8396
▁forhandlingene	-10.8398
▁passet	-10.84
▁skyldte	-10.8404
industri	-10.8407
▁live	-10.8408
▁vakte	-10.8411
▁slektninger	-10.8423
dre	-10.8424
▁nederlandene	-10.8424
▁dødsfall	-10.843
ika	-10.8433
▁ekstreme	-10.8435
▁fylke	-10.8437
▁tekstene	-10.8438
norsk	-10.8439
▁vokst	-10.8441
▁star	-10.8441
▁effekter	-10.8441
▁betydningsfulle	-10.8444
▁landbruks	-10.845
▁planeten	-10.8455
▁gruve	-10.8455
ich	-10.8463
▁ud	-10.8463
▁skriftlige	-10.8468
▁plikt	-10.8469
▁fortalt	-10.8474
▁news	-10.8476
kal	-10.8476
▁sachsen	-10.8477
▁gater	-10.8478
former	-10.848
strøm	-10.8483
▁fremstilling	-10.8486
▁72	-10.8486
▁jordbruks	-10.8487
▁korea	-10.8488
▁depresjon	-10.849
▁alexandria	-10.8491
▁1842	-10.8492
▁usikkert	-10.8494
▁not	-10.8497
▁kunstig	-10.8497
▁bredere	-10.8497
▁1892	-10.8497
▁lin	-10.85
▁landsby	-10.8502
▁polar	-10.8503
▁2015.	-10.8505
▁180	-10.8506
▁protester	-10.8514
▁retts	-10.8517
tri	-10.8521
▁kjernekraft	-10.8522
▁sats	-10.8522
▁søndag	-10.8525
▁sørvest	-10.8525
▁teknikken	-10.8525
▁kunsten	-10.8525
▁palass	-10.8527
▁gjensidig	-10.8527
▁palestina	-10.8527
▁noensinne	-10.8527
▁eirik	-10.8528
▁aggressiv	-10.8531
▁nominert	-10.8533
▁verste	-10.8534
▁astronomi	-10.8535
▁analyser	-10.8537
▁innviet	-10.8538
▁maud	-10.854
▁tilnærme	-10.8542
etok	-10.8543
▁symfoni	-10.8549
▁arvet	-10.8549
▁sex	-10.8554
▁forbudet	-10.8555
▁fremmed	-10.856
▁regelmessig	-10.8562
▁reflektere	-10.8565
støtte	-10.8565
▁innflytelsesrik	-10.8565
▁pavelig	-10.8567
▁62	-10.8569
▁vidt	-10.857
bø	-10.8573
▁universet	-10.8574
▁vokal	-10.8574
▁einar	-10.8575
ano	-10.8575
▁drammen	-10.8578
▁journal	-10.8578
▁fulle	-10.858
▁fin	-10.858
▁stemmene	-10.8583
administrasjonen	-10.8589
ledes	-10.859
▁dommer	-10.8594
▁forfølgelse	-10.8594
fly	-10.8601
▁østromerriket	-10.8602
▁1893	-10.8603
▁nøkkel	-10.8603
▁spesifikk	-10.8603
▁1877	-10.8603
▁1894	-10.8603
lan	-10.8604
▁apple	-10.8605
▁ris	-10.8606
▁arve	-10.861
▁vertikal	-10.8614
▁ost	-10.8616
▁sakte	-10.862
kin	-10.8628
tun	-10.8629
▁utsette	-10.863
▁ammunisjon	-10.8633
50	-10.8637
øvrig	-10.8641
▁betaling	-10.8647
▁900-	-10.8647
▁nøye	-10.8648
▁klimaendringer	-10.8651
selskap	-10.8652
▁anderson	-10.8654
navn	-10.8655
planen	-10.8657
▁hotell	-10.8657
▁sitert	-10.8659
▁lister	-10.8661
▁utgaver	-10.8661
▁kolonier	-10.8661
▁skrog	-10.8662
▁kostnaden	-10.8663
▁nasjon	-10.8666
sang	-10.8666
▁respekt	-10.8666
▁rose	-10.8666
års	-10.8671
▁ordens	-10.8672
▁spilles	-10.8673
vold	-10.8676
sberg	-10.8677
▁ram	-10.8678
▁interne	-10.8678
▁boston	-10.8678
▁county	-10.8679
▁parallelt	-10.8681
▁væske	-10.8683
▁underveis	-10.8684
arbeider	-10.8684
▁romsdal	-10.8685
▁kretser	-10.8685
skrift	-10.8686
▁utbrudd	-10.8687
▁serbisk	-10.8688
▁operasjoner	-10.8694
▁videregående	-10.8695
▁intervju	-10.8697
▁opptak	-10.8698
▁tegneserie	-10.8704
▁gitar	-10.8705
▁lengste	-10.8709
▁viktigere	-10.8712
▁samsvar	-10.8714
▁selvstendige	-10.8716
▁heinrich	-10.8716
▁kartago	-10.8716
▁afghanistan	-10.8721
▁inge	-10.8724
▁symbolsk	-10.8725
▁anser	-10.8727
ji	-10.8727
▁likevekt	-10.8728
▁125	-10.8728
▁forveksle	-10.8731
▁opplag	-10.8733
▁hekke	-10.8733
▁bombe	-10.8736
▁keiserlige	-10.8737
▁industrien	-10.8741
▁statsråd	-10.8742
don	-10.8743
▁krone	-10.8744
▁protest	-10.8749
mel	-10.875
▁organisk	-10.8751
zo	-10.8751
▁tredjedel	-10.8751
▁tårnet	-10.8751
▁havner	-10.8755
sloven	-10.8759
▁fabrikker	-10.8767
dor	-10.8769
▁fremtiden	-10.8773
▁plyndret	-10.8778
kongen	-10.8784
▁hannen	-10.879
▁alvor	-10.8792
▁kvinnelandslag	-10.8793
▁lovene	-10.8795
▁hydro	-10.8796
▁reisende	-10.8797
▁school	-10.8798
▁su	-10.8798
▁railroad	-10.8798
▁kanalen	-10.8799
▁regjeringens	-10.8803
▁traktaten	-10.8803
▁dreid	-10.8804
▁nedtegnet	-10.8807
▁advokat	-10.8814
▁amt	-10.8817
▁kronen	-10.8818
▁festivalen	-10.8818
▁møre	-10.882
▁rus	-10.8827
▁tsjekkoslovakia	-10.8831
▁fjellene	-10.8833
▁ekstremt	-10.8839
▁forbedring	-10.8841
▁dan	-10.8842
▁omtalte	-10.8845
▁love	-10.8847
▁protein	-10.8852
ssystem	-10.8852
▁ntnu	-10.8853
▁kroatia	-10.8853
▁metal	-10.8854
ip	-10.886
▁avisene	-10.886
▁komiteen	-10.8861
forsamlingen	-10.8861
▁tunnel	-10.8863
▁greve	-10.8865
▁yngste	-10.8878
▁jevnlig	-10.888
▁krigsskip	-10.8886
▁hov	-10.8888
sur	-10.8888
▁utgravning	-10.8891
utstyr	-10.8891
▁lade	-10.8895
stra	-10.8898
bal	-10.8902
minister	-10.8903
▁pop	-10.8905
▁reklame	-10.8905
.;	-10.8906
13	-10.8906
▁århundrene	-10.8908
▁identisk	-10.8909
kel	-10.8909
▁vennskap	-10.891
▁helgen	-10.8911
▁flokk	-10.8912
hen	-10.8913
-3	-10.8916
trafikken	-10.8916
dar	-10.8917
▁representasjon	-10.8919
ata	-10.8923
▁morgen	-10.8925
pen	-10.8928
▁68	-10.8928
▁halvøy	-10.8931
▁ankomst	-10.8935
▁tour	-10.8935
kort	-10.8936
▁avdøde	-10.8937
▁christopher	-10.8938
▁skuespiller	-10.894
▁liter	-10.8947
▁museet	-10.895
und	-10.8951
▁frakte	-10.8951
▁sitteplasser	-10.8953
▁tsjekkisk	-10.8953
▁risikoen	-10.8953
▁augustus	-10.8953
▁kvalifisert	-10.8955
tisk	-10.8955
▁misjons	-10.8959
▁dverg	-10.8962
▁variasjoner	-10.8964
▁strengt	-10.8966
▁adel	-10.8967
▁dyret	-10.8967
kor	-10.8972
▁verd	-10.8977
▁states	-10.8979
▁1870	-10.8983
▁inneholde	-10.8983
formen	-10.8985
▁47	-10.8985
▁130	-10.8986
▁nes	-10.8999
▁1888	-10.9001
▁fremover	-10.9002
▁gjennombrudd	-10.9004
▁forstyrre	-10.9005
▁koblet	-10.9006
▁utvalget	-10.9008
▁vinden	-10.9011
▁andersen	-10.9014
▁nødt	-10.9015
ib	-10.9015
▁frivillige	-10.9016
sprosessen	-10.9022
▁lengden	-10.9023
20	-10.9025
▁administrere	-10.9026
▁avsløre	-10.9026
▁dublin	-10.9026
▁elleve	-10.9026
▁http	-10.9026
▁danse	-10.9026
▁øystein	-10.9027
ans	-10.9032
▁farvann	-10.9033
▁140	-10.9033
▁uttalt	-10.9036
▁høst	-10.9044
spor	-10.905
way	-10.9051
▁eksperimenter	-10.906
▁lønn	-10.9062
▁historiker	-10.9064
▁blande	-10.9064
▁kjennetegn	-10.9067
▁1851	-10.9068
▁studiet	-10.9074
▁vanskeligere	-10.9077
stod	-10.9078
▁toget	-10.9081
▁sagaen	-10.9081
▁bølger	-10.9083
▁admiral	-10.9083
▁løsninger	-10.9089
▁fiskere	-10.9091
bare	-10.9095
tjeneste	-10.9096
senteret	-10.9103
▁abort	-10.9105
livet	-10.9105
▁knust	-10.9105
▁53	-10.9106
▁dekorert	-10.911
▁mannskap	-10.9113
ninger	-10.9114
▁akademi	-10.9116
11	-10.9125
▁fartøy	-10.9126
red	-10.9126
sak	-10.9127
bevegelse	-10.9129
▁fisken	-10.913
▁eksil	-10.913
▁teknikker	-10.9131
▁primær	-10.9131
▁digital	-10.9131
lighet	-10.9131
▁auto	-10.9132
▁kulturell	-10.9134
▁france	-10.9144
▁forestillinger	-10.9144
▁mesopotamia	-10.9144
▁plast	-10.9149
▁overføre	-10.915
▁intens	-10.915
▁tilbakekobling	-10.9154
▁dårligere	-10.9155
▁3000	-10.9156
ball	-10.9156
▁bevissthet	-10.9157
▁penge	-10.9158
▁minister	-10.9159
▁landskapet	-10.916
▁long	-10.9162
▁netto	-10.9163
▁koble	-10.9165
▁sagn	-10.9172
▁underkaste	-10.9176
▁leger	-10.918
stat	-10.9182
▁plattform	-10.9183
▁gjennomgå	-10.9183
▁slovakia	-10.9184
▁eie	-10.9185
▁hellig	-10.9188
punkt	-10.919
▁ordene	-10.919
ney	-10.9191
▁mord	-10.9193
▁betydningsfull	-10.9194
▁pass	-10.9194
▁onkel	-10.9195
▁1890-	-10.9195
tis	-10.9195
▁heste	-10.9196
korea	-10.92
▁misjon	-10.9202
fot	-10.9202
▁nevø	-10.9205
▁klasser	-10.9205
utvikling	-10.9209
▁son	-10.9209
▁offiser	-10.9209
steder	-10.922
▁erfaringer	-10.9221
▁patent	-10.9223
wood	-10.9231
▁avdelingen	-10.9233
of	-10.9234
▁first	-10.9235
▁ekspansjon	-10.9237
▁konserter	-10.9237
gel	-10.9242
▁ulv	-10.9242
svarte	-10.9242
nk	-10.9244
▁skjold	-10.9248
▁maler	-10.9249
▁organisere	-10.9252
▁nu	-10.9254
▁veksten	-10.9255
▁målinger	-10.9257
▁malm	-10.9257
▁br	-10.9258
▁antydet	-10.9261
▁mikro	-10.9263
▁rapporter	-10.9263
▁luxembourg	-10.9264
▁serbia	-10.9265
▁praha	-10.9265
iz	-10.9265
▁cup	-10.9269
skogen	-10.9272
enhet	-10.9274
▁73	-10.9281
▁senket	-10.9283
stasjon	-10.9284
▁virginia	-10.9285
strømmen	-10.9289
▁stol	-10.929
▁samtiden	-10.9291
▁jørgen	-10.9291
ble	-10.9293
▁allmenn	-10.9297
▁ri	-10.93
▁evig	-10.93
80	-10.9305
san	-10.9305
▁ernst	-10.9307
handel	-10.9309
▁okkupasjonen	-10.931
▁oppdage	-10.9318
arter	-10.9321
▁grønn	-10.9321
▁intellektuelle	-10.9322
▁beskrivelsen	-10.9323
▁overføring	-10.9324
▁dokument	-10.9325
▁tabellen	-10.9325
▁forsøke	-10.9325
▁reserve	-10.9326
▁innvandrere	-10.9328
▁værende	-10.9328
vogn	-10.9329
kjøring	-10.933
ros	-10.933
▁episoden	-10.9331
30	-10.9332
▁psykologisk	-10.9338
▁utstillingen	-10.9339
▁himmel	-10.934
▁sekretær	-10.9342
henger	-10.9343
▁au	-10.9344
▁warwick	-10.9345
▁regulær	-10.9346
▁konsentrasjon	-10.9348
▁rettssak	-10.9348
mot	-10.9349
▁elvene	-10.9349
off	-10.9351
▁kompleks	-10.9354
▁great	-10.9358
est	-10.9359
jord	-10.9359
▁biologisk	-10.936
pol	-10.9362
▁nm	-10.937
▁landsbyer	-10.9374
▁onde	-10.9375
varende	-10.9376
▁menneskets	-10.9377
zi	-10.9377
▁58	-10.9381
▁undersøkelsen	-10.9381
▁foreslå	-10.9385
▁neptun	-10.9386
▁snarere	-10.9386
▁påpekt	-10.9386
▁vestfold	-10.9386
▁praktisert	-10.9387
▁dyktig	-10.9387
▁seile	-10.9388
styret	-10.9388
ou	-10.9389
▁kult	-10.939
▁tone	-10.9391
▁krønike	-10.9395
▁lukke	-10.9398
▁slange	-10.9405
▁landskap	-10.9406
▁lofoten	-10.9408
▁cape	-10.9409
▁svekke	-10.9411
hed	-10.9415
▁troll	-10.9416
▁tilpasse	-10.9418
12	-10.9419
▁86	-10.9421
▁paret	-10.9422
nu	-10.9423
gu	-10.9423
▁gutter	-10.9423
▁1886	-10.9427
rykket	-10.9428
▁sammensetning	-10.9431
can	-10.9434
▁elevene	-10.9438
▁vinge	-10.944
▁skarp	-10.9441
▁bunnen	-10.9442
▁besøkende	-10.9443
▁geoffrey	-10.9446
▁elev	-10.9449
▁delstaten	-10.945
▁pakistan	-10.9453
▁sport	-10.9457
▁700-	-10.9461
▁lykkes	-10.9464
▁gårder	-10.9466
▁foreta	-10.9467
▁bretagne	-10.9467
▁bosnia	-10.9473
▁lie	-10.9477
▁døpt	-10.9482
ru	-10.9483
▁brant	-10.9485
▁center	-10.9486
tjenester	-10.9487
▁smerte	-10.9488
▁bladet	-10.9488
▁sovjetisk	-10.949
▁road	-10.9493
▁utgav	-10.9496
▁følte	-10.9497
▁sivilisasjon	-10.9498
▁vill	-10.95
▁magasin	-10.95
ron	-10.9503
▁kritikken	-10.9505
▁kai	-10.9508
▁200-	-10.9508
▁avbildet	-10.9513
▁situasjoner	-10.9516
▁thor	-10.9517
▁jensen	-10.9519
▁uttalelse	-10.952
▁vg	-10.952
▁johnson	-10.9521
▁bud	-10.9522
norske	-10.9526
▁kretsen	-10.9527
▁komponenter	-10.9529
vogner	-10.953
▁gar	-10.9533
▁stammene	-10.954
▁luthersk	-10.954
rus	-10.954
▁major	-10.9542
▁dab	-10.9542
▁1,5	-10.9543
▁graven	-10.9549
▁normannisk	-10.955
▁navngitt	-10.9554
▁feilaktig	-10.9555
▁opptre	-10.9555
▁overraskende	-10.9556
▁personlighet	-10.9558
▁stanset	-10.956
▁ideell	-10.9561
▁strukturer	-10.9561
▁utvidelse	-10.9563
ran	-10.9565
▁dømme	-10.9565
[	-10.9566
▁kv	-10.9567
▁stockholms	-10.9568
▁operaen	-10.957
▁finansiert	-10.9571
forhold	-10.9576
▁jf	-10.9576
▁cromwell	-10.9583
▁sporet	-10.9584
▁spissen	-10.9584
lund	-10.9584
▁sektor	-10.9585
▁mønstre	-10.9585
▁nordre	-10.9589
▁selskapene	-10.9589
▁moh	-10.9589
▁kongressen	-10.9591
▁1867	-10.9592
▁1871	-10.9593
▁celle	-10.9593
▁rektor	-10.9593
▁navy	-10.9595
ath	-10.9598
▁kåre	-10.9598
teori	-10.9599
▁utelukke	-10.9599
▁69	-10.96
rud	-10.9601
lser	-10.9604
▁oppfylle	-10.9606
▁budsjett	-10.9606
▁artister	-10.9608
▁minnet	-10.9609
▁varsle	-10.9615
▁formelle	-10.9615
▁bildene	-10.9619
▁referere	-10.9621
▁etterspørselen	-10.9622
▁rygg	-10.9622
nske	-10.9623
▁fordelen	-10.9623
▁prinsipper	-10.9626
angrep	-10.9627
▁kampanje	-10.9628
▁gatene	-10.9629
▁sær	-10.9633
▁østfold	-10.9634
▁lojalitet	-10.9634
▁1859	-10.9634
,4	-10.9637
▁tjener	-10.9638
dels	-10.9638
▁giovanni	-10.964
▁sult	-10.9641
▁amsterdam	-10.9641
▁stillehavet	-10.9643
lis	-10.9645
▁pressen	-10.9648
▁brød	-10.965
mp	-10.9651
revolusjonen	-10.9652
posten	-10.9656
▁oppførsel	-10.9657
▁lunge	-10.966
regjeringen	-10.9661
▁utformingen	-10.9664
▁kreft	-10.9664
▁lokaler	-10.9665
▁bombefly	-10.9666
▁76	-10.9668
enberg	-10.967
▁ambassadør	-10.9671
▁skatten	-10.9672
17	-10.9674
▁eurovision	-10.9675
▁synonym	-10.9675
▁piano	-10.9676
▁sjøsatt	-10.9677
▁law	-10.968
▁hjerne	-10.9682
▁knop	-10.9683
▁vekten	-10.969
▁ki	-10.969
▁fasen	-10.9691
▁sha	-10.9695
▁tjenestegjor	-10.9695
ara	-10.9697
▁nasjonalisme	-10.97
▁ukjente	-10.97
▁hylle	-10.9702
▁ford	-10.9704
▁teknologisk	-10.9706
løs	-10.9709
▁prinsipp	-10.971
▁einstein	-10.9716
▁artilleri	-10.9716
sider	-10.9717
▁amundsen	-10.9718
▁1863	-10.9718
▁melodi	-10.9718
▁forretnings	-10.972
▁lisens	-10.972
▁malte	-10.972
▁kirkene	-10.973
▁studio	-10.9731
▁tallene	-10.9731
▁konvensjonell	-10.9731
▁forestillingen	-10.9736
▁snitt	-10.974
▁svenskene	-10.974
▁konsesjon	-10.9742
▁avtaler	-10.9745
brudd	-10.9748
▁verkene	-10.9751
kapasitet	-10.9753
▁95	-10.9753
▁kolonien	-10.9755
▁maksimal	-10.9757
▁kunstner	-10.9758
▁løslatt	-10.9759
▁donau	-10.976
▁1861	-10.976
▁forsker	-10.976
▁ark	-10.9761
▁styring	-10.9762
▁nederst	-10.9763
▁brensel	-10.9766
▁punkter	-10.9772
▁hyppig	-10.9773
▁samuel	-10.9773
▁kjemi	-10.9773
▁ladningen	-10.9774
▁tusenvis	-10.9774
▁samlinger	-10.9774
▁burgund	-10.9786
▁2-	-10.9788
smessig	-10.9789
samfunn	-10.979
▁pe	-10.9791
▁romantisk	-10.9794
▁57	-10.98
▁teoretisk	-10.9801
▁estimert	-10.9801
▁massachusetts	-10.9801
port	-10.9802
▁1883	-10.9802
▁halvdan	-10.9804
▁henvise	-10.9806
▁generasjoner	-10.981
horn	-10.9816
lene	-10.9823
▁sosialistisk	-10.9831
nis	-10.9839
▁vekselstrøm	-10.9841
anlegget	-10.9842
▁liga	-10.9843
▁dreier	-10.9844
▁milano	-10.9846
▁flyvning	-10.985
▁velges	-10.9852
tion	-10.9853
▁parker	-10.9854
▁fargen	-10.9854
▁kritikere	-10.9856
▁voldelig	-10.9857
▁arkitekter	-10.9859
▁minske	-10.9863
▁bergens	-10.9863
gh	-10.9864
▁undertegnet	-10.9864
▁gaver	-10.9866
hund	-10.9872
ity	-10.9875
▁forsterke	-10.9876
▁hjernen	-10.9877
▁1880-	-10.9878
-10	-10.9881
▁livs	-10.9882
▁følelse	-10.9884
▁materie	-10.9885
▁tønsberg	-10.9887
▁contest	-10.9888
▁infrastruktur	-10.9888
tus	-10.9888
▁augustin	-10.989
▁utenlands	-10.9891
▁belgisk	-10.9893
▁vietnam	-10.9902
▁nordsjøen	-10.9903
listen	-10.9905
verdi	-10.9907
▁bokmål	-10.9907
▁etterlatt	-10.991
▁overskudd	-10.991
▁filmene	-10.9911
▁streng	-10.9914
▁jenter	-10.9919
▁bronsealderen	-10.9924
▁informasjons	-10.9924
▁johansen	-10.9924
▁lineær	-10.9925
▁frigjøre	-10.9928
▁1887	-10.9929
▁installert	-10.993
▁neolittisk	-10.993
▁airways	-10.993
▁edmund	-10.993
▁øyeblikkelig	-10.993
▁1866	-10.993
▁påstått	-10.9934
grensen	-10.9941
▁larve	-10.9945
▁respons	-10.9953
▁trekant	-10.9956
▁frankrikes	-10.996
▁tjue	-10.9963
kast	-10.9963
▁350	-10.9965
▁78	-10.9969
▁tankene	-10.997
▁advart	-10.9973
▁jugoslavia	-10.9973
▁velkjent	-10.9973
▁strakte	-10.9974
▁bibelsk	-10.9976
▁1830	-10.9978
▁formue	-10.998
▁myter	-10.9982
▁begravet	-10.9983
▁geistlige	-10.9984
▁maritim	-10.9985
▁part	-10.9986
▁avstander	-10.9988
▁deutsche	-10.9989
▁medfører	-10.9989
▁santa	-10.999
▁2017.	-10.9991
▁tegninger	-10.9993
▁religioner	-10.9993
▁deltatt	-10.9993
bank	-10.9994
▁rev	-10.9995
▁billed	-10.9997
▁mag	-10.9997
▁bakke	-10.9999
▁tekstil	-11
▁bidrat	-11.0002
▁villa	-11.0006
▁magi	-11.0008
▁vektor	-11.0008
▁kule	-11.0009
eringen	-11.0009
▁meg	-11.0009
▁dc	-11.0012
▁lagre	-11.0013
vig	-11.0015
▁menneskeheten	-11.0017
▁sykkel	-11.0021
▁planlegging	-11.003
▁hvete	-11.0032
▁erklære	-11.0039
▁begrensninger	-11.004
gate	-11.0041
▁avskaffet	-11.0043
▁rettighetene	-11.0045
nettet	-11.0047
▁studien	-11.0051
sigende	-11.0053
▁kollektiv	-11.0058
▁motstander	-11.0059
▁jersey	-11.006
▁formulert	-11.006
▁bosetninger	-11.0061
▁avfall	-11.0064
▁tann	-11.0066
▁rettssaken	-11.0067
▁skriftlig	-11.007
▁datere	-11.0073
▁nasjonen	-11.0075
▁koloniene	-11.0077
▁grundig	-11.0081
▁kavaleri	-11.0083
▁etterspørsel	-11.0084
▁overgrep	-11.0088
▁kjemisk	-11.0089
▁omgjort	-11.009
oni	-11.0102
▁railway	-11.0102
▁bulgaria	-11.0103
▁blomstret	-11.0103
▁1872	-11.0104
▁islandsk	-11.0109
▁senke	-11.011
▁import	-11.011
▁gammelt	-11.0117
▁studentene	-11.0121
▁99	-11.0122
▁gudinne	-11.0127
▁vaske	-11.0134
hjul	-11.0135
▁partikkel	-11.0136
▁trening	-11.0138
frac	-11.0138
grav	-11.0145
▁fysiker	-11.0147
skåret	-11.0148
01	-11.0148
▁hughes	-11.0149
▁adelige	-11.015
hal	-11.015
▁inndelt	-11.015
▁ulikt	-11.0151
▁car	-11.0151
trafikk	-11.0154
▁fins	-11.0155
▁støy	-11.0155
▁hu	-11.0163
▁tillate	-11.0163
▁clark	-11.0163
▁rhinen	-11.0165
tel	-11.017
holm	-11.0171
kultur	-11.0172
▁medium	-11.0174
▁mont	-11.0175
▁club	-11.0175
foreningen	-11.0176
yn	-11.0179
▁kabel	-11.0179
mesterskapet	-11.0181
▁planlagte	-11.0185
▁sjanger	-11.0186
▁henger	-11.0186
▁nekte	-11.0188
▁belte	-11.0189
dig	-11.0189
▁melk	-11.019
▁begrunne	-11.0191
▁materiell	-11.0191
mellomkrigstiden	-11.0192
▁1884	-11.0192
▁krysse	-11.0195
organisasjoner	-11.0196
▁nazi	-11.0197
▁marsjert	-11.0199
historien	-11.0199
dagen	-11.0199
▁ya	-11.0203
bjørn	-11.0205
▁brian	-11.0205
▁utløse	-11.0206
ida	-11.0206
▁stabilitet	-11.0209
▁fiskerne	-11.0215
▁kjøretøyer	-11.0215
▁bosetningen	-11.0216
▁eggene	-11.0217
▁kopi	-11.0218
▁religionen	-11.0221
▁fremført	-11.0223
▁för	-11.0224
▁blodig	-11.0225
stilling	-11.0228
▁emne	-11.0229
▁true	-11.0235
▁anglo	-11.0235
▁atmosfærisk	-11.0235
▁skeptisk	-11.0235
▁1865	-11.0237
▁harde	-11.0238
neppe	-11.024
▁mislyktes	-11.024
▁dun	-11.0241
▁spist	-11.0242
▁sanne	-11.0244
▁cannabis	-11.0245
▁maur	-11.025
▁babylon	-11.0251
▁turneringen	-11.0252
▁hjort	-11.0257
▁elva	-11.026
lands	-11.0263
ola	-11.0267
▁planla	-11.0268
▁kronet	-11.0269
▁verne	-11.0269
▁døtre	-11.027
midler	-11.027
▁manuskript	-11.0272
tter	-11.0273
▁ferge	-11.0275
▁magasinet	-11.0277
ström	-11.0278
▁falske	-11.028
▁tilbrakt	-11.0281
▁hemmelighet	-11.0282
▁strekk	-11.0283
▁hendene	-11.0285
▁odin	-11.0287
▁telemark	-11.0288
-17	-11.0288
gaard	-11.0289
▁utfordret	-11.0289
▁østersjø	-11.0296
parti	-11.0301
▁pat	-11.0303
bakken	-11.0305
▁portrett	-11.0306
maskin	-11.0309
▁aspekter	-11.031
ij	-11.031
▁samarbeide	-11.0312
▁vognene	-11.0312
▁83	-11.0313
▁dype	-11.0314
▁mis	-11.0314
▁1600	-11.0321
▁karbondioksid	-11.0324
,7	-11.0325
▁1845	-11.0326
▁omgivelsene	-11.0326
bor	-11.0326
▁sukker	-11.033
▁arving	-11.0332
▁hage	-11.0333
▁mobil	-11.0333
▁forberede	-11.0335
▁ull	-11.0338
▁vev	-11.034
forholdet	-11.034
▁konsept	-11.034
▁1875	-11.0344
▁medier	-11.0346
▁fremmede	-11.0349
▁europas	-11.035
▁rotasjon	-11.0354
▁tåle	-11.0357
▁skinn	-11.0357
▁bekostning	-11.0369
▁rudolf	-11.0369
▁finansiere	-11.0369
▁bestemmelser	-11.0369
▁huden	-11.0375
▁spredd	-11.0376
▁planetene	-11.0376
▁senest	-11.0378
▁gjennomsnitt	-11.0381
▁myte	-11.0384
▁hanner	-11.0384
▁utenlandsk	-11.0386
▁mynter	-11.0388
▁abraham	-11.0389
▁normale	-11.0393
▁1878	-11.0396
iet	-11.04
▁hansen	-11.0401
line	-11.0402
▁skroget	-11.0402
▁sitat	-11.0404
▁tidsskriftet	-11.0404
▁opplevd	-11.0404
▁endel	-11.0405
▁1876	-11.0406
politikken	-11.0407
▁lånt	-11.0409
▁www	-11.0409
▁temaet	-11.041
▁religiøst	-11.041
▁nova	-11.0411
▁jødedom	-11.0414
▁georgia	-11.0415
▁husdyr	-11.0417
▁110	-11.0421
▁kontekst	-11.0424
▁truffe	-11.0427
▁lovet	-11.0427
▁anton	-11.0427
▁jul	-11.0428
ekspedisjonen	-11.043
▁fusjon	-11.0434
konferansen	-11.044
strømmer	-11.0442
▁finske	-11.0446
▁stillinger	-11.0449
▁landbruk	-11.045
▁grunnstoff	-11.0451
▁omringe	-11.0452
▁slagskip	-11.0452
▁anvendes	-11.0455
▁big	-11.0459
▁investeringer	-11.046
▁namsos	-11.046
▁lancaster	-11.046
▁1857	-11.0461
▁varmt	-11.0461
▁slaveri	-11.0463
▁mynt	-11.0463
▁huske	-11.0471
▁deltar	-11.0477
▁kvaliteten	-11.0479
▁stang	-11.0484
halvøya	-11.0484
16	-11.0485
▁regjeringstid	-11.049
▁96	-11.0492
▁bue	-11.0497
▁føres	-11.0497
▁flyplassen	-11.0499
▁seil	-11.05
▁referanser	-11.05
▁terreng	-11.0501
▁potensielle	-11.0502
▁kostet	-11.0503
▁rikdom	-11.0504
▁3-	-11.0504
▁corporation	-11.0505
▁pålagt	-11.0506
ys	-11.051
▁bragt	-11.0511
lon	-11.0512
▁teologiske	-11.0513
sammenhengende	-11.0514
▁forurensning	-11.0516
bygde	-11.0516
▁oberst	-11.0523
▁sorte	-11.0535
▁lokomotiv	-11.0537
▁anvendt	-11.0542
lik	-11.0547
▁celler	-11.055
▁omdøpt	-11.0551
▁evnen	-11.0552
che	-11.0554
mand	-11.0555
arm	-11.0557
▁omnibus	-11.056
▁forplikte	-11.056
▁newton	-11.0564
▁handelsmenn	-11.0566
▁grunnlegger	-11.0567
▁will	-11.0568
▁mus	-11.0571
▁symboler	-11.0573
▁beskrivelser	-11.0573
▁krysser	-11.0575
▁jackson	-11.0576
▁malerier	-11.0577
▁ses	-11.0583
▁turist	-11.0589
▁wa	-11.0589
▁aluminium	-11.0591
illa	-11.0592
▁muhammed	-11.0597
▁vanskeligheter	-11.0598
▁marcus	-11.0598
▁utløp	-11.0599
000	-11.06
▁flandern	-11.0601
▁din	-11.0603
▁ibn	-11.0605
ins	-11.0607
▁are	-11.0611
▁160	-11.0612
slekten	-11.0613
▁finansiering	-11.0614
▁williams	-11.0615
▁tørr	-11.0616
ater	-11.0616
▁ideologi	-11.0619
▁victor	-11.062
▁teknikk	-11.0621
ong	-11.0624
▁omsetning	-11.0625
teknikk	-11.0625
▁one	-11.0628
▁cha	-11.0631
▁oppdagelse	-11.0632
▁planeter	-11.0633
bussen	-11.0633
▁utbyggingen	-11.0634
klasse	-11.0635
▁danmarks	-11.0636
lev	-11.0636
pt	-11.0637
▁nøytron	-11.0637
46	-11.0639
▁87	-11.064
▁balkan	-11.0643
▁interessant	-11.0643
▁gårdene	-11.0644
▁bydelen	-11.0645
▁fronten	-11.0646
▁utvist	-11.0647
kov	-11.0647
▁innsjøer	-11.0648
▁forekomst	-11.0649
▁71	-11.0652
erende	-11.0654
brev	-11.0654
▁kreftene	-11.0661
▁elve	-11.0661
▁israels	-11.0665
ram	-11.0666
fart	-11.0671
▁back	-11.0671
▁1940-	-11.0674
▁kjøp	-11.0675
▁tykke	-11.0677
▁pasient	-11.0677
24	-11.0682
▁hersket	-11.0682
▁institute	-11.0687
ios	-11.0688
▁kyros	-11.069
▁2019	-11.0695
▁hevet	-11.0698
▁ras	-11.0699
▁bio	-11.0703
▁avdelinger	-11.0704
▁institusjon	-11.0707
▁veksle	-11.071
▁foredrag	-11.071
idae	-11.0712
▁pekt	-11.0713
mur	-11.0716
▁statistikk	-11.0717
▁maten	-11.0717
▁fylkes	-11.0718
▁intern	-11.072
bilder	-11.0723
hard	-11.0727
▁gjengjeld	-11.0735
▁frigjøring	-11.0735
▁komplisert	-11.0737
▁minimum	-11.0738
▁kjennetegne	-11.0741
▁utslag	-11.075
▁støv	-11.0751
rock	-11.0752
▁dokumentasjon	-11.0753
▁tilbudet	-11.0753
samfunnet	-11.0753
▁jordskjelv	-11.0755
▁konspirasjon	-11.076
▁besetningen	-11.0762
▁stasjonen	-11.0763
▁1885	-11.0765
▁åpner	-11.0771
▁foto	-11.0773
▁gear	-11.0776
▁påstander	-11.0778
▁osten	-11.0781
▁sea	-11.0782
▁argentina	-11.0782
▁inngangen	-11.0782
▁enheten	-11.0783
hall	-11.0783
▁virkningsgrad	-11.0785
▁vingene	-11.0786
▁sverge	-11.0787
▁army	-11.0789
▁redegjørelse	-11.0789
▁xiv	-11.0789
▁stammen	-11.079
▁baner	-11.0792
▁kostnader	-11.0792
▁foretrekke	-11.0793
falt	-11.0794
▁moder	-11.0795
▁proporsjonal	-11.0795
▁dis	-11.0795
styre	-11.0796
▁bel	-11.0803
▁hopp	-11.0805
opplysningstiden	-11.0808
▁74	-11.0808
▁pengene	-11.0808
▁plasser	-11.081
los	-11.0811
▁kommunale	-11.0813
uch	-11.0819
▁utfordringer	-11.0822
▁ru	-11.0823
▁ustabil	-11.0826
bukta	-11.083
▁overbevise	-11.0831
▁frans	-11.0837
viser	-11.0837
▁syk	-11.0844
▁stoffet	-11.0844
▁odd	-11.085
sol	-11.0855
▁tilknytte	-11.086
▁forskningen	-11.0863
▁marx	-11.0865
ada	-11.0869
▁brevet	-11.0869
▁stjernene	-11.0874
▁anledninger	-11.0875
▁grov	-11.0875
▁arendal	-11.0876
▁anonym	-11.0877
▁ideologisk	-11.0878
▁passerte	-11.0881
▁opprørerne	-11.0885
▁deltagelse	-11.0886
▁electric	-11.089
▁menigheter	-11.0891
▁fattig	-11.0895
▁ju	-11.0898
ost	-11.0906
▁mon	-11.091
▁fylle	-11.0912
▁døgn	-11.0914
▁taler	-11.0922
▁moment	-11.0922
▁blokk	-11.0923
▁ci	-11.0923
▁ekeberg	-11.0924
▁1879	-11.0925
▁utnyttelse	-11.0927
▁kode	-11.0929
▁ordfører	-11.093
▁rogaland	-11.093
▁hammer	-11.0931
hr	-11.0933
din	-11.0935
▁mottar	-11.0937
▁organer	-11.0938
▁fremstå	-11.0938
▁prosa	-11.0941
qu	-11.0941
▁organismer	-11.0942
dro	-11.0943
▁treffe	-11.0943
▁ky	-11.0944
▁fravær	-11.0944
▁soldat	-11.0948
▁tragedie	-11.0949
▁skall	-11.0951
fil	-11.0951
▁innvirkning	-11.0953
▁nepal	-11.0954
▁figurene	-11.0955
▁umiddelbar	-11.0956
▁bit	-11.0956
▁nedsatt	-11.0962
▁passerer	-11.0967
▁regent	-11.0969
▁speil	-11.097
▁indikasjon	-11.0971
gre	-11.0973
haug	-11.0973
mos	-11.0974
▁hms	-11.0975
▁evolusjon	-11.0975
▁1881	-11.0976
▁jordbruket	-11.0978
▁terror	-11.0979
▁epos	-11.0979
▁høyest	-11.0979
▁avsnitt	-11.098
▁reelle	-11.0981
▁dele	-11.0991
stid	-11.0992
chen	-11.1001
strand	-11.1001
▁markeds	-11.1004
sosialistiske	-11.1009
▁vulkansk	-11.1011
irland	-11.1012
,2	-11.1013
▁ice	-11.1014
▁kontroversiell	-11.1019
▁leiligheter	-11.1021
▁tortur	-11.1022
▁undervist	-11.1023
▁kalender	-11.1024
▁magnet	-11.1029
▁tretti	-11.103
▁operativ	-11.103
▁hugh	-11.1031
▁gregor	-11.1031
ct	-11.1033
▁selges	-11.1035
▁besøke	-11.104
▁dor	-11.104
▁offentligheten	-11.1043
skog	-11.1043
▁tynne	-11.1044
▁femti	-11.1046
▁frankfurt	-11.1048
▁slutte	-11.105
▁radar	-11.105
▁universiteter	-11.1059
▁horisontal	-11.1061
▁hol	-11.1062
▁lecter	-11.1067
▁boeing	-11.1068
▁stephen	-11.1074
mil	-11.1074
▁okkupasjonsmakt	-11.1074
▁leire	-11.1076
iserte	-11.1076
▁svein	-11.108
▁rikt	-11.1082
▁flagget	-11.1083
▁formell	-11.1084
vor	-11.1085
ili	-11.1086
gass	-11.1088
▁påstanden	-11.1089
▁77	-11.1091
▁utgjøre	-11.1092
ming	-11.1095
▁skjule	-11.1107
problemer	-11.111
▁kongo	-11.111
,6	-11.1113
band	-11.1113
▁hund	-11.1114
▁inflasjon	-11.1116
▁dødsstraff	-11.1116
▁fluks	-11.1116
-4	-11.1116
▁1873	-11.1117
▁1862	-11.1117
▁linjene	-11.1118
▁informert	-11.1121
effekt	-11.1122
▁stiftelsen	-11.1122
▁aksjon	-11.1122
skrifter	-11.1125
▁sekund	-11.1125
▁homer	-11.1127
▁overføres	-11.1131
▁provinsene	-11.1137
kur	-11.1138
▁lake	-11.1139
▁sirkel	-11.1139
skipet	-11.1139
▁muslim	-11.114
▁sc	-11.1142
▁stige	-11.1144
▁testet	-11.1148
▁krisen	-11.1148
▁skygge	-11.1149
fisk	-11.1153
fabrikken	-11.1154
▁rede	-11.1162
dt	-11.1162
▁ombygd	-11.1164
▁glede	-11.1164
▁næringsliv	-11.1164
▁northumbria	-11.1164
▁stanley	-11.1165
spenning	-11.1166
▁plukke	-11.1167
▁fiende	-11.1168
▁øverst	-11.1169
dere	-11.117
▁hamilton	-11.1174
▁komponert	-11.1175
nings	-11.1176
▁katolikkene	-11.1177
ssen	-11.1179
liste	-11.1184
gra	-11.1184
▁hundrevis	-11.1186
▁oppdraget	-11.1188
▁kjølvann	-11.1189
▁summen	-11.1195
▁separate	-11.1195
▁ruiner	-11.1197
▁tros	-11.1197
▁individ	-11.1201
▁paa	-11.1205
▁stavkirke	-11.1205
lus	-11.1205
▁97	-11.1206
▁fal	-11.1207
nor	-11.1208
▁revidert	-11.1213
,9	-11.1214
▁1856	-11.1214
▁episoder	-11.1214
sha	-11.1216
▁flyene	-11.1216
byen	-11.1217
▁cd	-11.1218
ub	-11.1218
▁ein	-11.1219
avdelingen	-11.1219
barn	-11.1223
▁påske	-11.1224
▁avviklet	-11.1224
▁frekvensen	-11.1229
▁hybrid	-11.123
▁varmere	-11.1233
▁sannhet	-11.1234
▁manuskripter	-11.1234
▁ideal	-11.1235
rute	-11.1236
overensstemmelse	-11.1237
▁arkiv	-11.124
▁sun	-11.1242
▁intensitet	-11.1242
ella	-11.1246
▁eksistere	-11.1246
▁villig	-11.1248
ungarn	-11.1248
▁yrkes	-11.1249
▁jones	-11.125
bre	-11.1251
▁81	-11.1252
▁såret	-11.1253
▁bønn	-11.1255
▁ve	-11.1255
▁verdslige	-11.1256
are	-11.1257
▁jim	-11.1257
▁operere	-11.1258
▁inkludere	-11.1258
▁up	-11.126
rasende	-11.1262
▁columbia	-11.1262
▁1882	-11.1263
▁olavs	-11.1265
▁orkesteret	-11.1267
▁innstilt	-11.1267
▁midtre	-11.1267
lid	-11.1273
▁klassifisert	-11.1273
dra	-11.1277
selskaper	-11.1277
▁opphavet	-11.1277
festivalen	-11.1281
▁besetning	-11.1282
▁produktet	-11.1282
▁charter	-11.1283
▁ger	-11.1283
▁ev	-11.1283
▁61	-11.1286
elli	-11.1289
▁overgi	-11.1292
▁temaer	-11.1295
▁begynnelse	-11.1296
▁nasa	-11.13
▁revolusjonære	-11.1304
▁borgen	-11.1305
▁forfatterne	-11.1305
▁jordan	-11.1305
▁parter	-11.1305
gg	-11.1307
▁istid	-11.1308
▁godkjenne	-11.131
▁demonstrert	-11.1311
▁tørrfisk	-11.1311
▁petersburg	-11.1312
pu	-11.1313
▁gripe	-11.1317
▁dypere	-11.1317
▁utøvere	-11.1321
▁singel	-11.1322
▁aksje	-11.1325
▁seksjon	-11.1327
▁tillit	-11.1327
▁same	-11.1333
▁narkotika	-11.1333
▁dåp	-11.1337
▁egenskap	-11.1339
▁levning	-11.134
ikk	-11.1342
▁hypotesen	-11.1342
▁fett	-11.1343
aktig	-11.1346
▁kostbare	-11.1347
ico	-11.1348
▁atter	-11.135
▁klostre	-11.1353
▁stabil	-11.1353
▁humor	-11.1356
▁drapet	-11.1358
rit	-11.1359
▁fastslå	-11.136
▁nordmennene	-11.1364
▁oversette	-11.1365
▁serier	-11.1367
▁sjel	-11.1368
▁magisk	-11.1368
▁moderat	-11.1369
virksomheten	-11.1374
▁iranske	-11.1375
▁frisk	-11.1375
▁strekke	-11.1378
▁hypotese	-11.1382
▁oppmuntret	-11.1386
jon	-11.1386
25	-11.1389
▁philip	-11.1391
end	-11.1392
▁inntektene	-11.1392
▁logisk	-11.1395
▁sm	-11.1395
dia	-11.1397
▁fortellingene	-11.1397
▁forsvinner	-11.1399
▁dybde	-11.1403
▁fremstille	-11.1404
▁stenge	-11.1408
▁vestre	-11.1408
▁fantastisk	-11.141
▁korstog	-11.1411
▁håkonsson	-11.1413
▁titler	-11.1414
.«	-11.1414
gl	-11.1415
▁wood	-11.1416
▁romantikken	-11.1417
▁omstridt	-11.1419
▁hebraisk	-11.1419
▁herskere	-11.142
▁frykte	-11.142
▁karakterisere	-11.1422
▁språklig	-11.1424
▁his	-11.1426
trekk	-11.143
▁ritualer	-11.1432
▁kjøkken	-11.1432
▁opprinnelsen	-11.1433
▁kapell	-11.1434
▁wall	-11.1435
ban	-11.1437
▁sports	-11.1439
sko	-11.1441
▁innsikt	-11.1443
▁vulkan	-11.1444
▁redskap	-11.1445
▁tilstanden	-11.1447
▁svak	-11.1447
▁korset	-11.1449
31	-11.145
▁verv	-11.1453
▁turbin	-11.1455
▁ep	-11.1456
▁etruskisk	-11.146
▁haakon	-11.146
▁voldtekt	-11.1461
▁brutal	-11.1464
▁negativt	-11.1466
▁etablering	-11.1466
▁nazistene	-11.1466
▁størrelser	-11.1467
▁nærvær	-11.1467
▁fiskeri	-11.1468
▁fossil	-11.147
▁retur	-11.147
▁folkeslag	-11.1471
▁uttale	-11.1471
varer	-11.1471
▁respektive	-11.1475
▁nettsted	-11.1475
▁deltakelse	-11.1475
ance	-11.1479
▁kjeller	-11.1481
▁lykke	-11.1482
▁frakt	-11.1482
▁napoleon	-11.1484
▁antenne	-11.1484
▁wright	-11.1485
sforhold	-11.1486
vern	-11.1487
kanten	-11.1488
▁personene	-11.149
▁impuls	-11.1491
▁nærme	-11.1496
▁59	-11.1496
▁lokomotiver	-11.1504
prosjektet	-11.1505
▁filosofisk	-11.1506
▁mandat	-11.1508
▁adoptert	-11.1511
▁ludwig	-11.1511
▁grekere	-11.1511
▁1864	-11.1512
▁kryss	-11.1513
▁gave	-11.1513
fr	-11.1514
ita	-11.1515
▁reduserer	-11.1515
▁1870-	-11.1516
▁krigsfanger	-11.1519
▁450	-11.152
▁preste	-11.1521
▁oppfatningen	-11.1526
▁sekundær	-11.1529
veggen	-11.1532
▁standarden	-11.1532
▁fakultet	-11.1533
▁kristi	-11.1536
▁freds	-11.1539
▁hjelper	-11.1546
▁fornyet	-11.1546
▁philipp	-11.1547
▁guddommelige	-11.1547
▁dimensjoner	-11.1553
▁samtale	-11.1553
▁stabile	-11.1553
án	-11.1557
▁urbane	-11.1558
▁geometrisk	-11.1558
▁bygda	-11.1559
▁florida	-11.1561
▁rydde	-11.1562
▁1854	-11.1562
▁opererer	-11.1566
▁sant	-11.1567
▁borgerne	-11.1567
▁sidene	-11.1567
▁utfører	-11.1567
▁mektig	-11.1569
ré	-11.1572
▁avhengighet	-11.158
-5	-11.158
▁sola	-11.158
▁romaner	-11.1584
▁fredsavtale	-11.1584
▁tegne	-11.1585
br	-11.1588
pin	-11.1591
▁innsjøen	-11.1593
▁registrerte	-11.1594
▁væpne	-11.1599
▁anvendelse	-11.1602
▁brukere	-11.1607
▁queen	-11.1607
▁asiatisk	-11.1607
▁sammenstøt	-11.1607
bygd	-11.1611
▁mississippi	-11.1612
▁relevant	-11.1612
▁samtykke	-11.1612
▁taylor	-11.1612
▁castilla	-11.1612
▁radius	-11.1615
▁russerne	-11.1615
▁verre	-11.1617
▁michel	-11.162
ex	-11.1621
▁fakta	-11.1622
,8	-11.1622
▁syntes	-11.1624
▁ferdighet	-11.1625
▁hørt	-11.1626
bygningen	-11.1626
▁praksisen	-11.1629
▁diskutere	-11.1633
▁samler	-11.1637
feld	-11.164
▁tsar	-11.164
▁historier	-11.1641
▁ibsen	-11.1641
▁fartøyene	-11.1641
▁angrepene	-11.1642
▁erkebiskopen	-11.1643
▁pen	-11.1646
▁komponister	-11.165
▁tykk	-11.1653
avdeling	-11.1654
▁faget	-11.1654
▁krigere	-11.1654
▁samles	-11.1655
▁bol	-11.1657
▁instrumenter	-11.1657
▁hospital	-11.1658
▁kast	-11.1662
▁guddommelig	-11.1663
▁canterbury	-11.1663
▁modifisert	-11.1663
▁ohio	-11.1663
▁1868	-11.1664
miljøet	-11.1665
▁epoken	-11.1666
▁hals	-11.1669
▁kjennskap	-11.167
▁framgang	-11.167
ft	-11.1671
▁astronom	-11.1673
▁central	-11.1676
▁ambulanse	-11.1677
▁torpedo	-11.1677
isten	-11.1677
▁hval	-11.1679
▁diesel	-11.1679
▁dagene	-11.1684
▁bydel	-11.1684
▁lærere	-11.1684
▁was	-11.1687
▁flyselskapet	-11.1687
▁xi	-11.169
▁power	-11.169
▁deg	-11.1691
▁vinkel	-11.1691
▁evner	-11.1692
ai	-11.1695
▁stiller	-11.1699
▁regime	-11.17
▁dannelse	-11.1701
gjort	-11.1702
▁militæret	-11.1703
▁røyk	-11.1707
ial	-11.1708
▁fundamental	-11.1708
▁holdninger	-11.1708
▁avgang	-11.1709
▁akt	-11.171
gal	-11.1713
▁legende	-11.1714
▁korrupsjon	-11.1714
▁kandidat	-11.1714
▁kosovo	-11.1714
▁stuart	-11.1714
▁uendelig	-11.1715
▁teknologien	-11.1715
▁svartehavet	-11.1716
▁oppslutning	-11.1719
▁nhl	-11.1719
▁resolusjon	-11.1719
▁statsministeren	-11.1721
▁kompani	-11.1721
▁idé	-11.1723
▁skjell	-11.1723
45	-11.1723
▁koranen	-11.1729
▁wergeland	-11.1731
▁aske	-11.1731
▁kommandant	-11.1732
▁mislykket	-11.1735
▁sjøs	-11.1739
setting	-11.1746
▁turbinen	-11.1746
▁innså	-11.1749
mal	-11.175
▁minutt	-11.1752
▁nivået	-11.1754
▁innrømme	-11.1755
last	-11.1755
effekten	-11.176
▁banken	-11.1761
▁henge	-11.1762
▁eksemple	-11.1764
▁benjamin	-11.1766
▁apostel	-11.1766
mathbf	-11.1766
▁uken	-11.1768
hof	-11.1769
▁leopold	-11.177
▁1869	-11.177
▁party	-11.1774
▁sterkeste	-11.1774
▁book	-11.1777
▁mw	-11.1783
sdatter	-11.1783
▁ordning	-11.1787
messig	-11.1789
▁fu	-11.179
▁84	-11.1791
▁pumpe	-11.1791
▁wagner	-11.1791
▁pels	-11.1794
▁leide	-11.1794
svik	-11.1795
▁misnøye	-11.1797
▁skribent	-11.1797
▁forståelsen	-11.1803
▁beslutningen	-11.1803
lich	-11.1804
▁konservativ	-11.1808
▁vedtaket	-11.1813
ism	-11.1813
▁tiltrekke	-11.1815
▁lyder	-11.1816
▁hordaland	-11.1818
▁observatør	-11.1818
▁forbilde	-11.1819
las	-11.1819
▁løper	-11.1819
▁premiere	-11.1819
kristne	-11.1822
▁vognen	-11.1822
konge	-11.1824
organ	-11.1825
sport	-11.1826
▁båtene	-11.1826
▁involverte	-11.1826
▁forsvunnet	-11.1826
ez	-11.1827
▁encyclopedia	-11.1829
▁farlige	-11.1833
▁1945.	-11.1837
▁utfordre	-11.1837
▁spurte	-11.1839
▁nordvestlig	-11.184
fabrikk	-11.1841
▁state	-11.1843
▁ordener	-11.1844
▁utmerket	-11.1845
▁flom	-11.1845
▁meningen	-11.1847
italia	-11.185
▁grev	-11.185
,1	-11.1851
▁stav	-11.1857
jan	-11.1859
▁monarki	-11.186
▁poly	-11.1862
▁etterforskning	-11.1865
olje	-11.1866
▁trusselen	-11.1869
▁ptolemaios	-11.187
vert	-11.1871
▁1858	-11.1871
▁avvik	-11.1872
øst	-11.1873
▁stift	-11.1873
▁bebyggelse	-11.1874
▁gl	-11.1874
▁prinsesse	-11.1876
▁howard	-11.1881
▁dekning	-11.1881
▁fran	-11.1884
▁nyheter	-11.1893
▁kammer	-11.1894
merke	-11.1896
▁lagde	-11.1899
bilde	-11.1899
▁multi	-11.19
maker	-11.1901
▁varianten	-11.1903
▁splittet	-11.1903
staten	-11.1905
▁rosa	-11.1905
▁tyve	-11.1907
▁turen	-11.1909
▁utgifte	-11.1909
▁fru	-11.1911
rettet	-11.1911
▁tenker	-11.1913
▁alan	-11.1914
bygging	-11.1918
▁donald	-11.1918
▁distrikt	-11.1918
▁bryst	-11.1919
tradisjonen	-11.1919
▁skillet	-11.1919
spolitikk	-11.192
▁lyst	-11.1921
▁dedikert	-11.1922
▁måneden	-11.1924
▁opererte	-11.1925
tum	-11.1925
▁tilpasning	-11.1927
▁hesten	-11.1928
▁kol	-11.1929
føring	-11.1937
stu	-11.1938
▁urban	-11.194
22	-11.1947
▁avgjørelse	-11.1948
status	-11.1948
▁blue	-11.1957
▁kommunikasjons	-11.196
▁kombinere	-11.196
▁ekstrem	-11.1961
maskiner	-11.1963
▁utgi	-11.1964
samling	-11.1966
▁understreke	-11.1967
vm	-11.1971
▁ansikt	-11.1972
▁roosevelt	-11.1975
▁uppsala	-11.1975
▁assyrisk	-11.1975
▁innkalt	-11.1975
▁primitive	-11.1976
pan	-11.1977
▁delstatene	-11.1978
▁utkom	-11.1979
▁hermann	-11.198
▁beregninger	-11.1982
▁støtten	-11.1983
kontroll	-11.1984
▁termisk	-11.1987
▁leo	-11.1988
▁separat	-11.1989
▁fritz	-11.199
▁engasjement	-11.1991
▁monroe	-11.1992
▁habsburg	-11.1992
▁rø	-11.1992
oli	-11.1994
▁broen	-11.1995
▁fenomener	-11.1997
▁middels	-11.1998
▁informasjonen	-11.1998
▁kam	-11.1998
▁gunstig	-11.1999
▁raskest	-11.2
▁storstilt	-11.2002
▁episode	-11.2002
egg	-11.2006
▁produsenter	-11.2008
ay	-11.201
▁92	-11.2012
tic	-11.2015
▁henvisning	-11.2019
▁filosofer	-11.2019
organisasjonen	-11.2019
▁arrangementet	-11.202
stedet	-11.2024
▁standpunkt	-11.2026
▁forsiktig	-11.2026
▁meninger	-11.2027
▁essay	-11.2028
▁iverksatt	-11.2028
▁lillehammer	-11.2028
▁patrick	-11.2028
▁bokstavelig	-11.2028
▁1855	-11.2029
▁billigere	-11.203
▁finsk	-11.2032
mag	-11.2032
▁kompliserte	-11.2032
▁senteret	-11.2033
▁bekymret	-11.2033
▁nsb	-11.2034
▁holm	-11.2034
ernes	-11.2035
▁vegg	-11.2037
▁adferd	-11.2037
gn	-11.2039
▁lidelser	-11.204
▁molde	-11.204
▁nederlaget	-11.204
▁ålesund	-11.2042
▁5000	-11.2044
bit	-11.2047
▁saturn	-11.2048
▁young	-11.2048
▁bekymring	-11.205
▁miljøer	-11.205
▁88	-11.205
▁sch	-11.2051
kh	-11.2055
baner	-11.2057
▁møtes	-11.206
▁mari	-11.2062
kle	-11.2063
▁utgangen	-11.2063
▁spare	-11.2064
▁polsk	-11.2064
▁komité	-11.2067
▁primære	-11.2068
▁skinner	-11.2071
▁ferden	-11.2072
▁læring	-11.2073
▁riker	-11.2076
kulturelt	-11.2078
båt	-11.208
▁fugle	-11.208
▁absorbere	-11.2081
▁gjenerobre	-11.2081
▁hittil	-11.2082
▁diverse	-11.2082
▁forklares	-11.2083
▁jonas	-11.2085
%	-11.2086
▁plage	-11.2088
▁bly	-11.2088
▁synd	-11.209
▁rykke	-11.2091
▁kjønns	-11.2093
▁ming	-11.2094
utenrikspolitikk	-11.2095
▁halvkule	-11.2096
▁anslag	-11.2098
messige	-11.21
▁protestert	-11.2101
▁dynamisk	-11.2102
▁gjennomslag	-11.2103
fjellene	-11.2104
rad	-11.2104
▁selger	-11.2105
▁legenden	-11.2106
▁aksjonen	-11.2106
▁offentliggjort	-11.2107
data	-11.2111
fo	-11.2112
▁sjette	-11.2113
▁skulptur	-11.2113
▁brand	-11.2113
fin	-11.2115
høyden	-11.2116
▁verb	-11.2118
haugen	-11.2123
▁biskopene	-11.2125
▁bri	-11.2125
dur	-11.2127
html	-11.2129
hallen	-11.213
metoder	-11.213
▁research	-11.2134
▁spekulert	-11.2134
▁drastisk	-11.2134
▁fiktiv	-11.2135
▁reagere	-11.2135
▁statsborgerskap	-11.2135
▁hengt	-11.2135
▁ferdigstilt	-11.2136
▁forstås	-11.2136
▁silke	-11.2137
▁suksessen	-11.2139
▁nøyaktige	-11.2139
▁returnere	-11.2139
▁passasjerene	-11.2142
▁eksistensen	-11.2142
▁tilflukt	-11.2143
▁bakover	-11.2147
▁konferansen	-11.2147
▁grunnleggeren	-11.2148
▁komponisten	-11.2154
▁betraktelig	-11.2155
ob	-11.2155
▁stedene	-11.2158
▁arts	-11.2161
▁departementet	-11.2162
▁eiere	-11.2164
▁bern	-11.2164
▁tau	-11.2167
ona	-11.2168
▁tetthet	-11.2172
▁utstilling	-11.2172
▁ferje	-11.2174
40	-11.2177
stikk	-11.2179
▁audi	-11.218
▁fetter	-11.2183
▁lyden	-11.2184
▁jernalderen	-11.2186
▁bø	-11.2188
▁forfulgt	-11.2188
▁grieg	-11.2188
▁eieren	-11.2188
▁mytologisk	-11.2189
▁etasjer	-11.2189
▁sjangeren	-11.219
▁slektning	-11.2192
▁fischer	-11.22
▁lyon	-11.2202
▁1200	-11.2203
▁kunder	-11.2205
▁bell	-11.2206
ric	-11.2208
▁mister	-11.2209
▁øre	-11.2213
▁nielsen	-11.2214
▁bekrefte	-11.2215
ische	-11.2215
▁trykkeri	-11.2217
åring	-11.2219
▁ty	-11.222
▁1874	-11.2228
▁sum	-11.2231
fjell	-11.2232
▁skyer	-11.2233
ick	-11.2234
stredet	-11.2237
▁konsul	-11.2239
mennene	-11.224
▁nak	-11.224
▁ødeleggelsen	-11.224
▁fornuft	-11.224
▁pdf	-11.2241
▁restaurert	-11.2242
▁beatles	-11.2242
▁kategori	-11.2245
▁cross	-11.2251
▁bruce	-11.2253
▁zu	-11.2253
prosjekter	-11.2254
programmer	-11.2255
manns	-11.2256
ringer	-11.2256
mas	-11.2257
▁gudinnen	-11.2259
▁personell	-11.2261
havn	-11.2261
▁haug	-11.2265
▁dampskip	-11.2267
▁vikingtiden	-11.2267
▁krok	-11.2268
▁tverr	-11.2271
▁trent	-11.2273
▁hvile	-11.2273
▁kandidater	-11.2276
▁foss	-11.2277
▁tilbakegang	-11.2279
▁teller	-11.228
oppdrag	-11.2282
▁løftet	-11.2285
▁biologiske	-11.2285
▁smale	-11.2285
▁98	-11.2286
rick	-11.2294
oy	-11.2294
▁basere	-11.2296
▁texas	-11.2296
▁legendarisk	-11.2296
▁redigert	-11.2297
mtredende	-11.2297
bol	-11.2297
▁bokstav	-11.2297
▁ørken	-11.23
ix	-11.23
▁banker	-11.2308
elige	-11.231
▁strålingen	-11.2312
▁gaten	-11.2312
formede	-11.2314
▁lovgivning	-11.2317
ó	-11.2318
▁fjern	-11.2319
▁geit	-11.2325
▁vårt	-11.2326
mmer	-11.2327
direktør	-11.2327
hy	-11.2328
▁sund	-11.2329
▁kim	-11.2333
gle	-11.2336
løst	-11.2337
ness	-11.2338
▁1840	-11.234
▁administrativ	-11.234
▁poeten	-11.2342
▁country	-11.2349
▁oppfunne	-11.2349
▁venus	-11.235
▁territori	-11.235
▁1832	-11.2353
▁realiteten	-11.2357
▁palasset	-11.2357
▁jr	-11.2358
▁kypros	-11.236
▁skikken	-11.2363
▁medici	-11.2364
,3	-11.2365
▁water	-11.2379
▁beholder	-11.2384
▁solo	-11.2384
park	-11.2384
▁belastning	-11.2385
▁ressurs	-11.2388
hav	-11.2388
▁strukturen	-11.2389
pr	-11.2392
▁raid	-11.2394
vers	-11.2395
cc	-11.2399
blad	-11.2402
▁forum	-11.2403
▁abstrakt	-11.2406
utgaven	-11.2406
▁judea	-11.2406
▁1821	-11.2408
▁portretter	-11.2408
▁utkjempe	-11.241
▁fredelig	-11.241
▁massive	-11.2411
handler	-11.2411
myndighetene	-11.2412
▁roll	-11.2412
▁libanon	-11.2416
▁svare	-11.2418
▁senatet	-11.2418
▁fundament	-11.2418
rekke	-11.2422
▁protestanter	-11.2423
▁oppfylt	-11.2423
stor	-11.2423
▁dynastiet	-11.2423
▁wild	-11.2424
ive	-11.2425
get	-11.2426
▁lady	-11.2426
▁hor	-11.2427
middel	-11.2428
▁havne	-11.243
▁tønne	-11.2431
▁rav	-11.2432
▁framtidig	-11.2433
▁pin	-11.2433
▁forbrytelser	-11.2434
▁kopier	-11.2435
tjenesten	-11.2439
▁keltiske	-11.2441
▁score	-11.2444
▁måles	-11.2448
▁plattformen	-11.2448
▁passe	-11.2454
▁nedstamme	-11.2455
▁nordøstlig	-11.2458
lat	-11.2458
▁tiende	-11.2459
▁mozart	-11.2461
▁gjengitt	-11.2463
▁sardinia	-11.2466
▁mild	-11.2473
▁1849	-11.2474
▁håndverkere	-11.2476
rørende	-11.2478
forsamling	-11.2479
▁biografi	-11.2481
▁89	-11.2489
bånd	-11.2489
▁kraftverket	-11.2489
▁profil	-11.2491
▁pest	-11.2491
▁stiger	-11.2495
▁quisling	-11.2495
▁langsomt	-11.2497
ate	-11.2499
▁tristan	-11.2499
ruter	-11.2502
▁lekene	-11.2502
modell	-11.2502
▁jobben	-11.2508
hel	-11.2511
format	-11.2513
qui	-11.2516
▁fattigdom	-11.2516
▁edinburgh	-11.2517
▁gestapo	-11.2517
▁1837	-11.2518
▁republikansk	-11.2519
5.	-11.252
▁sannsynligheten	-11.2522
▁fi	-11.2524
▁vinneren	-11.2524
▁innover	-11.2526
▁kre	-11.2528
▁foretak	-11.2528
▁medføre	-11.2534
▁bensin	-11.2535
▁katamaran	-11.2538
▁mester	-11.2544
▁sone	-11.2545
▁embetsmenn	-11.2547
▁sorg	-11.2549
sarbeid	-11.2549
▁trond	-11.2551
▁nansen	-11.2553
▁fartøyer	-11.2554
▁nede	-11.2555
anske	-11.2556
▁bal	-11.2557
▁regelen	-11.2558
konvensjonen	-11.2561
våg	-11.2563
aksen	-11.2564
▁real	-11.2564
▁brakt	-11.2565
ii	-11.2565
▁vid	-11.2567
▁yes	-11.2573
▁sebastian	-11.2573
▁beskyldt	-11.2573
▁mas	-11.2575
satt	-11.2577
▁kongsberg	-11.2577
▁mystisk	-11.258
▁påført	-11.2581
▁antonio	-11.2583
▁rio	-11.2583
▁117	-11.2585
▁wei	-11.2586
▁grovt	-11.2587
▁pedersen	-11.2587
▁hettittisk	-11.2588
28	-11.2589
▁stadium	-11.2591
▁granitt	-11.2591
miljø	-11.2593
▁wi	-11.2595
worth	-11.2596
▁stortings	-11.2596
gud	-11.2599
▁grove	-11.2599
▁æren	-11.26
ordnet	-11.2603
▁tester	-11.2603
bach	-11.2603
▁tra	-11.2611
▁tomt	-11.2613
▁1820	-11.2614
stiden	-11.2615
▁plater	-11.2615
▁stattholder	-11.2618
▁kjører	-11.2618
iel	-11.2627
▁ligaen	-11.2628
▁fjernes	-11.2628
emerkelsesverdig	-11.2629
gy	-11.263
▁nederlenderne	-11.2631
▁velstående	-11.2632
▁bridge	-11.2634
▁overordnede	-11.2634
▁uranus	-11.2635
▁forfatning	-11.2639
▁messe	-11.2639
▁samer	-11.264
▁forhandle	-11.2643
▁vo	-11.2644
skiller	-11.2646
▁optisk	-11.2646
|''	-11.2648
▁overga	-11.2649
▁79	-11.2653
▁intervall	-11.2654
▁templer	-11.2654
▁ringer	-11.2655
▁kompromiss	-11.2655
▁munk	-11.2657
▁petroleums	-11.2659
lam	-11.2662
dekket	-11.2666
rup	-11.2668
▁plikter	-11.267
lære	-11.267
▁cat	-11.2673
ledere	-11.2674
▁datoen	-11.2675
▁usikker	-11.2676
▁arbeidsgiver	-11.2679
▁belegg	-11.268
▁galt	-11.2681
▁reagert	-11.2685
▁berørt	-11.2685
▁frode	-11.2689
▁urfolk	-11.2689
▁distriktet	-11.269
gul	-11.269
▁rømme	-11.269
▁day	-11.2691
▁she	-11.2691
sær	-11.2691
ag	-11.2695
plasser	-11.2696
▁elementene	-11.2696
▁bokstaver	-11.27
nia	-11.2705
▁nivåer	-11.2705
forbundet	-11.2706
dahl	-11.2707
▁seminar	-11.2709
følgelig	-11.2711
vest	-11.2711
▁kutte	-11.2711
▁påpeke	-11.2712
▁viktighet	-11.2712
49	-11.2716
▁relative	-11.2717
▁hotel	-11.2719
boken	-11.2724
▁pirat	-11.2725
▁halvdelen	-11.2726
møte	-11.2727
modeller	-11.2728
bein	-11.2731
▁kinas	-11.2732
▁aktører	-11.2734
vesenet	-11.2735
▁straffet	-11.2737
▁forsvart	-11.2738
berlin	-11.274
▁für	-11.2742
▁reflektert	-11.2742
▁sekulær	-11.2742
▁sverdrup	-11.2742
▁ltd	-11.2743
▁rekruttert	-11.2744
3.	-11.2745
▁komplett	-11.2745
▁antisemittisme	-11.2746
▁instrument	-11.2749
▁barnebarn	-11.2749
▁spanjolene	-11.275
▁bark	-11.2751
▁91	-11.2754
▁etc	-11.2754
▁utstyret	-11.2755
▁1827	-11.2756
▁mr	-11.2762
▁forsinket	-11.2762
▁kommunal	-11.2768
styrker	-11.2773
rot	-11.2775
▁anbefalte	-11.2775
▁skjerm	-11.2776
▁rekkefølge	-11.2778
▁bryggeri	-11.2778
språket	-11.278
▁ferskvann	-11.2781
klubb	-11.2781
▁2,5	-11.2789
▁sangene	-11.2789
▁østre	-11.279
ien	-11.2791
▁skinne	-11.2792
▁maleri	-11.2792
▁transportert	-11.2792
▁hedenske	-11.2793
▁flyr	-11.2794
▁alta	-11.2797
▁hale	-11.2798
▁dagbladet	-11.2799
▁filippinene	-11.2799
▁gammelengelsk	-11.28
▁afroamerikansk	-11.28
▁høvding	-11.2804
▁petter	-11.2805
▁konverterte	-11.2806
▁guignol	-11.2808
▁birkebeinerne	-11.2809
▁kommisjon	-11.281
▁fat	-11.281
▁bla	-11.2811
ala	-11.2812
▁macbeth	-11.2812
▁hunner	-11.2813
parken	-11.2815
▁ran	-11.2817
▁læren	-11.2817
▁grønt	-11.2822
▁begrepene	-11.2825
▁matematiker	-11.2826
▁panser	-11.2828
▁fremskritt	-11.2828
▁visuell	-11.2829
▁forvist	-11.283
▁bilene	-11.2832
▁tjenesten	-11.2833
ms	-11.2833
26	-11.2835
▁magazine	-11.2838
▁ef	-11.2838
▁kollisjon	-11.2845
▁rulle	-11.2849
▁vellykke	-11.285
▁ligningen	-11.2855
▁1831	-11.2859
fase	-11.286
▁newtons	-11.286
▁stress	-11.286
▁bosette	-11.2861
▁eidsvoll	-11.2863
▁tyrkerne	-11.2863
▁forstyrrelse	-11.2863
▁nfl	-11.2864
▁theodor	-11.2864
▁besittelse	-11.2865
▁1847	-11.2865
▁nidaros	-11.2868
bygninger	-11.2868
ull	-11.287
▁flekker	-11.287
▁poet	-11.287
▁avgjort	-11.2876
handelen	-11.2877
▁1825	-11.2878
▁mistanke	-11.2881
▁gram	-11.2882
▁tilbudt	-11.2882
▁våpenhvile	-11.2883
uc	-11.2883
▁inc	-11.2885
▁spyd	-11.2887
▁beskjeden	-11.2888
▁bølgelengde	-11.2888
ua	-11.2894
▁innsjø	-11.2894
pos	-11.2895
ev	-11.2896
▁malta	-11.2897
▁beethoven	-11.2898
sområdet	-11.2901
▁gutt	-11.2902
stjerne	-11.2904
▁sykehuset	-11.2905
vatnet	-11.2908
▁føler	-11.2911
▁distribusjon	-11.2913
▁infanteri	-11.2914
▁invadere	-11.2915
▁tsjekkia	-11.2915
▁deportert	-11.2915
▁svenska	-11.2916
▁aksel	-11.2917
▁troja	-11.2917
▁klassifisere	-11.2918
hn	-11.2921
beina	-11.2921
▁vinduer	-11.2922
▁amerikanerne	-11.2923
deles	-11.2929
▁göteborg	-11.2931
▁hz	-11.2936
strukturen	-11.2936
▁foster	-11.2937
drag	-11.2938
▁kampanjen	-11.2938
▁framvekst	-11.2939
▁fremgang	-11.2942
▁flyplass	-11.2943
bygning	-11.2943
▁holland	-11.2944
▁forklaringer	-11.2945
dde	-11.2946
▁spenne	-11.2946
06	-11.2947
▁rest	-11.2947
elsen	-11.295
▁foten	-11.2951
heng	-11.2951
orum	-11.2958
itz	-11.2959
funksjon	-11.2959
▁lukt	-11.2959
▁orientert	-11.2961
▁ubåt	-11.2962
▁kledd	-11.2964
▁iso	-11.2964
ette	-11.2966
makt	-11.2969
▁rim	-11.297
mes	-11.2971
▁vitenskapen	-11.2972
▁khan	-11.2972
▁les	-11.2973
▁konstruere	-11.2973
▁katarina	-11.2973
▁naturvitenskap	-11.2975
▁buk	-11.2975
▁forflytte	-11.2975
▁markedsføring	-11.2976
▁ø	-11.2981
▁terminal	-11.2982
▁jesuitt	-11.2982
▁oliver	-11.2983
uff	-11.2985
▁estimat	-11.2988
ical	-11.2989
ping	-11.2989
▁samtidens	-11.2991
▁laker	-11.2994
▁hoppet	-11.3004
▁ak	-11.3006
▁virkningen	-11.3007
srett	-11.3009
sand	-11.301
temperaturen	-11.3011
▁link	-11.3011
▁låne	-11.3013
▁medie	-11.3013
ikke	-11.3015
museum	-11.3015
▁innstilling	-11.3018
estående	-11.3019
fred	-11.3021
▁kurven	-11.3023
1.	-11.3024
▁avhandling	-11.3027
▁beslutninger	-11.303
▁regional	-11.3031
▁anslå	-11.3031
▁insistert	-11.3031
▁omdiskutert	-11.3031
▁underjordisk	-11.3031
▁hugo	-11.3035
▁oppfinnelse	-11.3036
roman	-11.3037
▁bebyggelsen	-11.3038
▁melding	-11.3042
passende	-11.3043
landene	-11.3044
▁ordne	-11.3044
▁feiringen	-11.3046
▁universell	-11.3049
▁innlandet	-11.305
▁samtaler	-11.3051
▁metan	-11.3053
retten	-11.3054
▁insekt	-11.3054
▁avbrutt	-11.3056
▁platen	-11.3057
▁utvalgte	-11.3059
▁munker	-11.3059
▁94	-11.3066
▁massakren	-11.3067
▁synge	-11.3067
▁kjede	-11.307
føringen	-11.307
▁skolene	-11.3071
▁rettslig	-11.3072
▁forfedre	-11.3074
▁lim	-11.3074
▁ligget	-11.3076
▁metaller	-11.3076
▁gjelde	-11.3076
▁kunde	-11.3077
▁ö	-11.3078
▁brukeren	-11.3079
nerne	-11.308
ori	-11.3082
-12	-11.3083
▁kilo	-11.3085
▁132	-11.3085
▁innsatt	-11.3087
▁motsetningen	-11.3087
▁fortid	-11.3089
▁liverpool	-11.309
▁marokko	-11.309
▁hestekrefter	-11.309
▁doble	-11.309
▁kjøretøyet	-11.3091
▁legen	-11.3092
▁xii	-11.3092
▁1839	-11.3092
▁merkbar	-11.3095
▁beleiring	-11.3095
die	-11.3097
▁indoeuropeisk	-11.3099
▁pacific	-11.3099
▁tower	-11.31
istene	-11.3102
▁likestrøm	-11.3103
▁kristelig	-11.3105
run	-11.3107
▁patriotisk	-11.3107
▁niels	-11.311
▁ambisjoner	-11.3111
▁gren	-11.3111
▁troms	-11.3113
▁anthony	-11.3113
▁fur	-11.3117
vervet	-11.3119
▁framført	-11.3119
▁inngang	-11.3122
▁ringen	-11.3125
35	-11.3125
▁fordømte	-11.3126
▁elg	-11.3126
▁leddbuss	-11.3128
▁105	-11.3131
▁alf	-11.3132
▁stridsvogn	-11.3135
▁gjennomsnitts	-11.3141
reformen	-11.3142
ous	-11.3142
▁lyn	-11.3143
forestillinger	-11.3145
▁forandringer	-11.3147
▁gjenopprettet	-11.3147
▁treffer	-11.3148
▁satire	-11.3149
▁office	-11.3149
▁marmor	-11.315
led	-11.3151
▁1838	-11.3151
▁gre	-11.3152
▁førstnevnte	-11.3152
elva	-11.3153
▁dictionary	-11.3156
▁telt	-11.3156
▁opplyst	-11.3158
▁oppstart	-11.3159
▁klinisk	-11.316
▁gassen	-11.316
▁inneha	-11.316
▁innvandrer	-11.316
▁forestilling	-11.3161
boende	-11.3162
▁nav	-11.3162
▁aktuelt	-11.3162
▁stab	-11.3164
▁raf	-11.3164
▁indusert	-11.3165
▁nedtegnelser	-11.3165
bru	-11.3166
▁rammer	-11.3167
▁lofotfisket	-11.3168
▁kristian	-11.3169
kommisjonen	-11.3172
▁bomber	-11.3173
▁orgel	-11.3174
▁sympati	-11.3175
▁religions	-11.3178
▁tyr	-11.3179
god	-11.3184
▁pal	-11.3184
▁little	-11.3184
89	-11.3184
bær	-11.3185
▁symmetrisk	-11.3187
▁homo	-11.3188
▁dreper	-11.3191
hull	-11.3192
▁vor	-11.3193
ps	-11.3193
▁mellomrom	-11.3195
keiseren	-11.3199
▁nasjonalistisk	-11.3201
▁reaksjonen	-11.3202
æl	-11.3203
96	-11.3205
▁korps	-11.3206
▁øverstkommander	-11.3208
▁konvertere	-11.3209
▁illegal	-11.3209
▁parlamentarisk	-11.3209
86	-11.321
▁kreta	-11.321
▁utsending	-11.3212
▁parallelle	-11.3212
▁søknad	-11.3212
▁bevaring	-11.3214
▁mad	-11.3214
olo	-11.3215
''2	-11.3216
▁arkitekten	-11.3216
spiller	-11.3217
▁windows	-11.3218
▁1815	-11.3219
▁praktisere	-11.322
ander	-11.3221
▁isolasjon	-11.3221
syre	-11.3222
▁stormaktene	-11.3222
ls	-11.3224
▁utsiden	-11.3224
▁programvare	-11.3225
7.	-11.3227
27	-11.323
▁standardisert	-11.323
60	-11.3232
hun	-11.3232
▁domkirke	-11.3235
vitenskap	-11.3235
▁stigende	-11.3238
lie	-11.324
hengende	-11.324
▁ind	-11.3248
▁domstolen	-11.3249
▁elektronene	-11.3252
plater	-11.3255
▁digitale	-11.3257
▁semitrailer	-11.3258
▁kur	-11.3259
▁reell	-11.3261
▁balanse	-11.3262
▁amatør	-11.3264
▁mine	-11.3265
omgivelser	-11.3266
▁oppbevart	-11.3269
▁abbey	-11.3269
ward	-11.3275
▁kriminelle	-11.3279
▁slavene	-11.328
▁språkene	-11.3282
▁tacitus	-11.3289
_1	-11.3291
▁adams	-11.3297
▁skikk	-11.3297
▁eksperimentell	-11.3299
uf	-11.3301
▁befolket	-11.3305
▁sørvestlig	-11.3306
jer	-11.3306
▁kurdiske	-11.3307
ledelsen	-11.3308
▁cl	-11.3308
▁regionene	-11.3309
▁mini	-11.3311
▁kurve	-11.3311
jar	-11.3312
▁kunstneren	-11.3313
dis	-11.3315
▁115	-11.3316
▁1860-	-11.3317
nsentrasjonsleir	-11.3317
salg	-11.3319
▁93	-11.3322
▁fm	-11.3327
▁hispania	-11.3329
▁attraktiv	-11.333
▁ricci	-11.333
▁fiolin	-11.333
▁honning	-11.333
▁cu	-11.333
▁filosofen	-11.3331
▁færøysk	-11.3331
▁relasjoner	-11.3332
▁restaurering	-11.3332
▁1829	-11.3333
▁america	-11.3334
▁forklaringen	-11.3336
▁forhandlet	-11.3336
▁utstilt	-11.3337
38	-11.3337
▁churchill	-11.3338
▁köln	-11.334
▁gabriel	-11.3341
kjøretøyer	-11.3343
▁1700	-11.3343
▁brønn	-11.3346
▁forsamling	-11.335
▁pl	-11.3353
▁sko	-11.3353
▁tette	-11.3356
▁billig	-11.3356
▁premier	-11.3361
▁kriterie	-11.3362
sør	-11.3363
striden	-11.3365
▁geografi	-11.3366
▁march	-11.3368
▁humanistisk	-11.337
▁steinen	-11.3372
▁drapene	-11.3373
▁bredden	-11.338
▁oppmerksom	-11.3381
kirke	-11.3381
▁høyder	-11.3384
▁legemer	-11.3385
▁tilskudd	-11.3386
▁andrew	-11.3388
▁myk	-11.3389
▁obligatorisk	-11.3389
▁fornøyd	-11.3389
▁habitat	-11.339
▁willow	-11.339
▁godkjenning	-11.339
▁hendt	-11.339
▁forfall	-11.3391
▁bråt	-11.3391
▁1828	-11.3392
▁konsekvensene	-11.3394
▁provinser	-11.3394
▁stopp	-11.3395
▁western	-11.3397
funnet	-11.3398
eksamen	-11.3399
ild	-11.3399
▁intensjon	-11.3403
▁latt	-11.3403
▁symptomer	-11.3409
▁thailand	-11.3415
▁aksjeselskap	-11.3416
ferd	-11.3426
▁tørre	-11.3428
▁breddegrader	-11.3428
▁vinger	-11.3432
▁hundene	-11.3433
▁regjeringer	-11.3433
▁okkupasjon	-11.3434
▁dialekter	-11.3435
lyn	-11.3436
▁forvaltningen	-11.3436
▁scener	-11.344
▁stra	-11.3442
▁riksdagen	-11.3443
▁skåne	-11.3446
▁tynn	-11.345
▁ekspandert	-11.345
▁omstendigheter	-11.345
▁brussel	-11.3451
▁lofthus	-11.3451
▁statue	-11.3451
▁oppfinner	-11.3453
▁menighet	-11.3456
▁microsoft	-11.3458
▁deltakerne	-11.346
▁vern	-11.346
tag	-11.3461
▁dikteren	-11.3462
▁argument	-11.3462
▁web	-11.3462
▁grant	-11.3465
▁kveld	-11.3465
sj	-11.3466
▁salgs	-11.3466
▁detalj	-11.3466
▁mercia	-11.3469
leg	-11.3469
-8	-11.347
▁gravitasjon	-11.347
▁vert	-11.3475
sam	-11.3476
▁prinsen	-11.3479
▁styrer	-11.3479
▁godta	-11.3483
▁lagring	-11.3483
▁kvartal	-11.3484
▁etterretning	-11.3487
▁lam	-11.3491
4.	-11.3491
▁brenne	-11.3491
▁lært	-11.3492
▁elsker	-11.3494
myr	-11.3496
▁ek	-11.3497
▁behandler	-11.3497
▁sh	-11.3498
skudd	-11.3498
▁tran	-11.3499
▁trygge	-11.3503
▁smeltet	-11.3503
ide	-11.3504
tårnet	-11.3509
▁blind	-11.351
▁utnevne	-11.3511
▁library	-11.3512
▁konkurranser	-11.3512
▁krutt	-11.3512
tårn	-11.3514
str	-11.3514
▁registrere	-11.3514
▁rørstad	-11.3515
▁leilighet	-11.3515
▁murer	-11.3516
2.	-11.3517
lte	-11.3518
▁troende	-11.3522
aftenposten	-11.3523
▁kennedy	-11.3523
▁loke	-11.3524
▁ulster	-11.3524
▁innflytelsen	-11.3526
▁styres	-11.3526
▁1-	-11.3526
▁slipper	-11.3527
▁klekke	-11.3528
▁begrunnelse	-11.353
▁tilstander	-11.353
hon	-11.3531
▁utlendinger	-11.3532
▁ulykken	-11.3533
ensis	-11.3533
▁kriminalitet	-11.3534
cia	-11.3536
▁klassen	-11.3538
▁slanger	-11.3538
zer	-11.354
antok	-11.3545
sum	-11.3545
▁grevskap	-11.3547
▁monumental	-11.3548
▁komponentene	-11.3549
▁terrenget	-11.3549
▁rå	-11.355
dannelse	-11.3553
▁begravelse	-11.3555
▁besatt	-11.3557
▁trenge	-11.3558
▁tang	-11.3558
▁kontrakten	-11.356
▁trener	-11.3562
▁hovedkontor	-11.3562
▁monarkiet	-11.3564
▁utkast	-11.3564
▁lokomotivet	-11.3567
▁fantasi	-11.3569
▁dam	-11.357
▁top	-11.3571
hem	-11.3572
museet	-11.3572
33	-11.3572
▁shanghai	-11.3574
▁franklin	-11.3575
skrives	-11.3575
▁skikker	-11.3578
▁sag	-11.3579
▁slet	-11.3579
▁kommunistene	-11.358
▁kommunisme	-11.358
skader	-11.358
▁morsmål	-11.358
▁manns	-11.3583
▁stormen	-11.3584
▁oppfatninger	-11.3585
sfjorden	-11.3587
▁overtale	-11.3588
▁generere	-11.3589
▁bistand	-11.359
▁kald	-11.359
▁para	-11.359
kledd	-11.359
historisk	-11.3591
▁flyge	-11.3591
korn	-11.3592
▁funnene	-11.3594
▁glemt	-11.3594
▁pga	-11.3595
▁redd	-11.3596
bri	-11.3597
omgitt	-11.3599
▁foregående	-11.3603
91	-11.3606
▁vender	-11.3606
xi	-11.3606
▁vanndamp	-11.3608
kunsten	-11.3608
▁innspilling	-11.3613
▁stråle	-11.3615
▁cap	-11.3619
▁rettferdig	-11.362
mont	-11.3621
▁betø	-11.3622
▁leser	-11.3622
▁øyet	-11.3627
▁arvelig	-11.363
▁baser	-11.363
fan	-11.363
▁besittelser	-11.3631
▁spurt	-11.3632
▁lidelse	-11.3634
▁baldwin	-11.3636
▁hettittene	-11.3636
▁mussolini	-11.3636
▁assyria	-11.3636
▁mosebok	-11.3636
▁konrad	-11.3636
▁århundreskiftet	-11.3636
leiren	-11.3639
▁kjøpmenn	-11.364
23	-11.3641
▁abbed	-11.3642
▁morgan	-11.3643
-20	-11.3643
▁alzheimers	-11.3644
▁anklagen	-11.3645
▁forsøkene	-11.3645
▁rotoren	-11.3645
▁lensmann	-11.3645
▁friksjon	-11.3645
tius	-11.3646
▁utredning	-11.3646
▁symptom	-11.3647
bransjen	-11.3648
’	-11.3648
▁1840-	-11.3649
▁samtid	-11.365
▁arena	-11.3651
▁report	-11.3651
▁mytisk	-11.3655
teksten	-11.3656
▁undertrykke	-11.3657
ef	-11.3659
▁beite	-11.3661
▁rømte	-11.3662
▁efter	-11.3663
▁ker	-11.3668
▁måner	-11.3669
▁roller	-11.367
▁inskripsjoner	-11.3673
satte	-11.3674
▁omhandle	-11.3677
▁rune	-11.3678
▁fjernsyn	-11.3679
▁tiltalt	-11.3683
▁sta	-11.3684
▁magnetfeltet	-11.3685
▁deltakere	-11.3685
▁laste	-11.3686
▁enklest	-11.369
▁torg	-11.369
▁gutten	-11.3691
▁sven	-11.3692
▁latvia	-11.3698
▁variabel	-11.3698
▁arkaisk	-11.3698
▁vakker	-11.3698
▁bevitne	-11.3699
▁sveitsisk	-11.37
▁rituell	-11.3705
hode	-11.3706
▁virkelighet	-11.3706
▁bernard	-11.3706
bin	-11.3708
▁illustrert	-11.3708
▁mobiltelefon	-11.3708
stillingen	-11.3708
▁sving	-11.3708
▁leiesoldater	-11.3709
▁kategorier	-11.3709
▁dempe	-11.3712
▁kirkesamfunn	-11.3714
▁bus	-11.3714
▁materielle	-11.3716
▁videreføring	-11.3717
▁tvilsom	-11.3719
▁tilfellene	-11.372
▁ken	-11.3721
▁english	-11.3721
▁femten	-11.3722
▁vakre	-11.3722
▁anskaffet	-11.3723
▁skjære	-11.3725
▁stadion	-11.3726
▁bond	-11.3727
▁tape	-11.3729
ligningen	-11.3729
▁meyer	-11.3736
▁sans	-11.3736
▁kjøring	-11.3738
▁statuen	-11.374
▁telegraf	-11.374
65	-11.3741
lit	-11.3742
▁blomstre	-11.3746
▁silver	-11.3747
ramme	-11.3749
▁strenger	-11.3751
▁idretts	-11.3752
▁alliansen	-11.3754
▁fjerdedel	-11.3756
▁forskeren	-11.3756
▁gravitasjons	-11.3756
▁beløp	-11.376
▁mobile	-11.3761
07	-11.3761
▁evakuert	-11.3761
▁inklusiv	-11.3761
▁talent	-11.3761
▁belønne	-11.3762
pon	-11.3762
▁bispe	-11.3763
▁arabere	-11.3764
▁kropps	-11.3765
befolkningen	-11.3765
stasjoner	-11.3766
▁grus	-11.3766
▁alice	-11.3766
▁økosystem	-11.3767
▁avgift	-11.3768
▁hal	-11.3769
▁integrasjon	-11.3772
▁refleksjon	-11.3772
ill	-11.3773
▁good	-11.3774
styrke	-11.3776
▁riktige	-11.3777
▁feste	-11.3777
▁instituttet	-11.3777
39	-11.3778
ici	-11.3779
folkerepublikken	-11.378
bur	-11.3781
▁anatomi	-11.3783
▁jarlen	-11.3784
▁bevise	-11.3785
▁filosof	-11.3787
▁dyktige	-11.3789
▁zi	-11.3789
▁generasjonen	-11.3791
én	-11.3791
lek	-11.3791
▁orm	-11.3792
▁datamaskin	-11.3793
ordningen	-11.3799
▁1750	-11.38
▁hunde	-11.3801
▁5,	-11.3802
▁akselerasjon	-11.3805
▁bemerket	-11.3805
▁våpenet	-11.3805
spillere	-11.3807
▁forfatterskap	-11.3807
▁lastebil	-11.381
▁pasientene	-11.3812
79	-11.3812
står	-11.3814
▁fine	-11.3818
▁lei	-11.3819
soldater	-11.3819
▁kjell	-11.3821
▁eiendeler	-11.3824
▁ledes	-11.3825
litteratur	-11.3825
▁trykke	-11.3829
orientert	-11.383
styrkene	-11.3831
stammen	-11.3831
▁unions	-11.3834
▁manuel	-11.3835
▁tidsalder	-11.384
▁taiwan	-11.3841
▁nasjonalpark	-11.3843
▁mistenkte	-11.3845
▁kw	-11.3846
▁gor	-11.3849
▁ivrig	-11.385
seth	-11.3851
ice	-11.3851
▁beregnes	-11.3853
▁135	-11.3854
▁juan	-11.3854
▁jevne	-11.3856
row	-11.3857
▁750	-11.3862
▁utdannings	-11.3863
▁rettferdighet	-11.3865
▁protestantisme	-11.3865
hm	-11.3865
awa	-11.3865
▁che	-11.3868
▁irakisk	-11.3868
▁landsmøte	-11.3868
▁svinge	-11.3869
▁gulvet	-11.3871
▁laser	-11.3874
▁male	-11.3875
▁kommenterte	-11.3876
we	-11.3876
ann	-11.3876
foreligger	-11.3877
▁forsyne	-11.3877
▁tidende	-11.3878
▁popper	-11.3878
cher	-11.3879
▁stasjonert	-11.3881
▁sjakk	-11.3881
▁posten	-11.3882
▁masker	-11.3882
▁troppene	-11.3882
▁raser	-11.3883
▁motvirke	-11.3888
▁konsentrere	-11.3888
▁beseire	-11.3889
▁armenerne	-11.3889
lede	-11.3891
fu	-11.3893
▁sibir	-11.3894
▁112	-11.3894
▁fersk	-11.3895
▁hellenistiske	-11.3896
toget	-11.3896
stilen	-11.3897
▁stevne	-11.3898
▁kallenavnet	-11.39
▁fortiden	-11.39
hjelp	-11.39
▁council	-11.39
▁framstilling	-11.39
aj	-11.3902
anti	-11.3903
▁enzym	-11.3904
ira	-11.3904
relatert	-11.3904
▁havbunnen	-11.3907
▁oftere	-11.3908
8.	-11.3908
aktivitet	-11.3909
▁utfall	-11.3909
▁rosen	-11.3911
▁empirisk	-11.3912
▁dominans	-11.3914
opprøret	-11.3914
▁gjennomføring	-11.3915
▁emnet	-11.3916
▁114	-11.3917
▁notert	-11.3917
ager	-11.3918
▁herrer	-11.3922
▁kalv	-11.3923
▁høgskolen	-11.3926
▁stanse	-11.3927
▁camp	-11.3928
▁representantene	-11.3929
not	-11.393
▁reir	-11.393
ssa	-11.3932
▁gold	-11.3935
▁ekspedisjoner	-11.3936
time	-11.3936
turer	-11.3937
kostnadene	-11.3938
▁ivareta	-11.3939
sto	-11.394
▁helle	-11.3942
▁kombinasjonen	-11.3943
dam	-11.3944
▁dreie	-11.3945
kammeret	-11.3946
▁prestisje	-11.3946
▁hjemland	-11.395
▁avslutning	-11.395
▁gloucester	-11.3952
▁garantert	-11.3952
▁innbefatte	-11.3952
/2	-11.3952
tta	-11.3953
▁mortimer	-11.3955
▁4000	-11.3957
vet	-11.3958
▁vesener	-11.3962
støt	-11.3963
▁beda	-11.3963
▁peloponnes	-11.3966
▁ulykker	-11.3968
▁kapasiteten	-11.3969
▁sønnene	-11.3972
ssystemet	-11.3972
ack	-11.3973
▁herman	-11.3974
▁tettsted	-11.3974
▁damplokomotiv	-11.3974
▁epoke	-11.3974
planet	-11.3976
komiteen	-11.3976
▁befestet	-11.3978
▁odda	-11.3979
▁assistent	-11.398
05	-11.3983
nivået	-11.3983
▁forhånd	-11.3984
▁free	-11.3985
▁ege	-11.3986
▁fc	-11.3987
▁viet	-11.3988
▁skuespillere	-11.3991
fremmet	-11.3992
_{	-11.3992
▁tilsyn	-11.3996
▁rednings	-11.4
▁neo	-11.4
▁toleranse	-11.4001
▁spole	-11.4003
fort	-11.4003
▁harmoni	-11.4005
▁passere	-11.4006
▁muren	-11.4009
anda	-11.4013
▁utvidelsen	-11.4013
▁page	-11.4015
▁sopp	-11.4015
▁munkene	-11.4015
▁sporvei	-11.4015
kker	-11.4015
▁nürnberg	-11.4017
▁innhente	-11.4017
▁kinetisk	-11.4017
▁sosialisme	-11.4018
▁rente	-11.4019
▁genève	-11.4021
▁kaster	-11.4022
app	-11.4023
▁fuktighet	-11.4024
▁sudan	-11.4026
▁rammen	-11.4028
▁herfra	-11.4032
▁vannkraftverk	-11.4035
▁etterkommer	-11.4035
▁flyselskap	-11.4036
▁krim	-11.4036
95	-11.4036
▁overlevert	-11.4037
▁sørøstlig	-11.4037
tru	-11.4038
▁kontakten	-11.4039
▁smal	-11.4041
▁material	-11.4042
kontoret	-11.4042
▁sprang	-11.4045
▁pluss	-11.4045
▁bevist	-11.4046
▁høvdingen	-11.4051
holt	-11.4051
▁svakt	-11.4052
▁folkeparti	-11.4053
▁avstå	-11.4055
▁eksplosjon	-11.4057
rin	-11.4059
▁dagbok	-11.4059
▁kanaler	-11.4059
▁online	-11.4064
▁out	-11.4064
▁ordren	-11.4066
gull	-11.4067
▁spa	-11.4072
▁markering	-11.4074
▁vannføring	-11.4075
ås	-11.4077
▁frankiske	-11.408
▁merverdiavgift	-11.4082
▁siegfried	-11.4082
▁lørdag	-11.4082
▁assistanse	-11.4082
▁bristol	-11.4082
▁seriøs	-11.4082
▁unødvendig	-11.4082
▁livssyn	-11.4083
▁fremtid	-11.4083
▁fordeling	-11.4083
▁byttedyr	-11.4083
▁award	-11.4085
▁manchester	-11.4085
▁varm	-11.4086
talls	-11.4087
fugl	-11.4088
▁1852	-11.4089
▁høyst	-11.409
▁betrakter	-11.409
▁konstitusjon	-11.409
▁kraftstasjon	-11.4092
▁kaffe	-11.4094
▁knuse	-11.4095
▁kron	-11.4096
▁gasser	-11.4096
mengden	-11.4096
▁stopper	-11.4097
▁krag	-11.4097
▁halen	-11.4098
▁court	-11.4098
▁hockey	-11.41
▁tempo	-11.4101
sar	-11.4102
▁falsk	-11.4103
▁miller	-11.4103
studier	-11.4103
▁bryllup	-11.4104
▁katedralen	-11.4104
medisin	-11.4107
regimet	-11.4108
▁kal	-11.4111
strekker	-11.4112
enheter	-11.4116
▁ix	-11.4118
▁nettstedet	-11.4118
▁mike	-11.4118
▁enke	-11.4119
valget	-11.4121
▁organisering	-11.4122
▁søvn	-11.4123
▁forsamlingen	-11.4124
▁bratte	-11.4128
▁fylket	-11.4129
▁fredet	-11.413
-15	-11.413
ore	-11.413
▁bergarter	-11.4132
▁fugl	-11.4134
wal	-11.4136
▁sommerfuglen	-11.4138
▁etikk	-11.414
▁60-	-11.4141
stav	-11.4141
▁budskap	-11.4142
▁pyramide	-11.4144
▁løv	-11.4145
▁tilskuere	-11.4146
▁konkurrert	-11.4147
▁portugiserne	-11.4147
▁pilatus	-11.4147
▁bernhard	-11.4147
▁1824	-11.4149
▁1833	-11.4149
▁utrede	-11.415
▁====	-11.4151
▁restaurant	-11.4151
medlemmer	-11.4151
▁intensiv	-11.4154
▁svakere	-11.4155
90	-11.4155
▁potensiell	-11.4156
▁slåss	-11.4156
klubben	-11.4159
▁bakerst	-11.4161
▁fredag	-11.4162
▁kansler	-11.4168
▁debutert	-11.4168
▁sove	-11.4168
ama	-11.4172
▁tretten	-11.418
▁ansiktet	-11.4182
lege	-11.4185
oi	-11.4186
bildet	-11.4186
▁forekomme	-11.4186
▁ros	-11.4186
▁je	-11.4188
▁samtalen	-11.4189
sområder	-11.4189
▁butikk	-11.4191
low	-11.4193
pre	-11.4193
krig	-11.4195
▁riddere	-11.4197
▁forenklet	-11.4199
▁eg	-11.4199
sonen	-11.4201
▁gummi	-11.4202
▁universal	-11.4203
ér	-11.4204
▁sådan	-11.4207
jen	-11.4208
▁haugen	-11.4208
▁satsen	-11.4211
▁indonesia	-11.4213
▁konfiskert	-11.4213
▁lisboa	-11.4213
▁pennsylvania	-11.4213
▁gilbert	-11.4213
▁publisere	-11.4213
▁forvandle	-11.4213
stykker	-11.4213
▁gjeninnført	-11.4213
▁1836	-11.4214
▁davis	-11.4214
▁1853	-11.4214
▁neville	-11.4215
▁paragraf	-11.422
▁iberisk	-11.422
ned	-11.4223
▁arrangement	-11.4223
▁py	-11.4226
▁katolisismen	-11.4226
ssystemer	-11.423
▁underholdning	-11.423
▁varig	-11.4231
▁paulus	-11.4232
vind	-11.4233
▁furu	-11.4235
▁alminnelige	-11.4235
▁patron	-11.4235
▁klassifisering	-11.4239
▁påvise	-11.4241
put	-11.4241
59	-11.4244
▁sprengt	-11.4245
▁anklager	-11.4247
▁ban	-11.4247
▁sollys	-11.4252
▁overraske	-11.4254
▁effektivitet	-11.4257
▁rasisme	-11.4258
dikt	-11.4258
mun	-11.426
▁homofil	-11.426
▁kjenne	-11.4262
▁englands	-11.4262
føre	-11.4262
▁sy	-11.4264
lip	-11.4265
▁ana	-11.4266
▁ems	-11.4266
veg	-11.4266
konkurranse	-11.4266
_2	-11.4268
▁utforsket	-11.4268
sjø	-11.4268
▁livsstil	-11.427
▁astronomen	-11.4272
▁kopiert	-11.4278
▁antiokia	-11.4279
▁singapore	-11.4279
▁usannsynlig	-11.4279
▁oppfordring	-11.4279
▁eøs	-11.4279
▁wolfgang	-11.4279
▁eksakt	-11.4279
▁have	-11.428
▁burkhol	-11.428
▁sahara	-11.428
▁russlands	-11.428
▁mod	-11.4281
▁1835	-11.4281
▁disco	-11.4282
▁alpene	-11.4283
▁kjøl	-11.4284
▁palestinsk	-11.4285
▁angitt	-11.4285
▁forvirring	-11.4285
▁ribbungene	-11.4286
ære	-11.4288
▁funksjonen	-11.4288
▁naboer	-11.4289
▁fornybar	-11.4289
vakt	-11.4289
▁korsfarerne	-11.4291
▁boy	-11.4291
▁forlaget	-11.4291
▁file	-11.4293
▁favoritt	-11.4295
▁eksportert	-11.4295
▁dommeren	-11.4297
▁kle	-11.4297
▁morten	-11.4301
▁stavelse	-11.4304
▁egypterne	-11.4306
▁markus	-11.4306
▁tiåret	-11.4307
▁sjanse	-11.4309
kul	-11.431
ld	-11.431
cke	-11.4312
▁forandring	-11.4312
▁gudstjeneste	-11.4313
▁bestemmes	-11.4314
▁eksperiment	-11.4318
▁lær	-11.432
▁privilegier	-11.4322
▁skikkelse	-11.4322
▁forekom	-11.4326
▁hjertet	-11.4327
94	-11.4327
▁tenkning	-11.4329
▁indianerne	-11.4331
▁aksept	-11.4333
▁bon	-11.4333
▁varighet	-11.4334
fal	-11.4334
magasin	-11.4339
batteri	-11.4339
▁natural	-11.4339
▁innad	-11.434
▁but	-11.434
jakt	-11.4341
inus	-11.4342
▁leipzig	-11.4346
▁uheldig	-11.4346
▁football	-11.4346
▁mahler	-11.4346
▁igang	-11.4346
▁fylte	-11.4348
▁hjørne	-11.4348
▁mid	-11.4349
▁nåde	-11.435
▁stengte	-11.435
▁forutsatt	-11.4351
▁bob	-11.4351
båter	-11.4351
▁klokker	-11.4351
▁skjønnhet	-11.4352
sis	-11.4352
▁frankerne	-11.4353
▁emma	-11.4355
ving	-11.4358
▁glatt	-11.4361
grout	-11.4363
▁medvirkning	-11.4363
▁slektskap	-11.4365
▁nilen	-11.4366
▁minimal	-11.4366
–16	-11.4367
▁aero	-11.437
busser	-11.4372
romersk	-11.4373
▁gjenopprette	-11.4373
▁kniv	-11.4374
▁forsterkninger	-11.4375
planter	-11.4375
▁ay	-11.4376
itter	-11.4376
elven	-11.4377
fritt	-11.4378
▁innspillingen	-11.4381
▁oppkjøp	-11.4383
akt	-11.4385
▁dame	-11.4388
hand	-11.4392
▁redskaper	-11.4394
▁jus	-11.4396
evangeliet	-11.4398
▁2''	-11.4398
▁sensur	-11.44
▁romas	-11.44
▁infeksjon	-11.4401
foss	-11.4402
▁chris	-11.4402
splan	-11.4404
linjer	-11.4407
▁fjærdrakt	-11.4407
▁koke	-11.4407
▁2013.	-11.4407
▁hyppige	-11.4409
▁antakelig	-11.4413
▁misfornøyd	-11.4413
▁oppsikt	-11.4413
▁palisca	-11.4413
▁regissert	-11.4413
▁etnisitet	-11.4413
▁kvantemekanikk	-11.4413
▁opptøyer	-11.4413
▁landsbygda	-11.4413
▁ligne	-11.4414
▁asker	-11.4415
icus	-11.4416
▁utgivelse	-11.4419
▁danskene	-11.442
▁herbert	-11.4421
▁ombygging	-11.4421
snivå	-11.4422
▁infrarød	-11.4422
▁overtalt	-11.4429
▁jeger	-11.443
▁stakk	-11.443
▁rådgivere	-11.4432
▁blått	-11.4434
▁kjøper	-11.4437
▁junior	-11.4438
▁sjeldent	-11.4438
rich	-11.4439
▁head	-11.4439
dr	-11.444
▁trusler	-11.4444
▁hauge	-11.4445
▁likheter	-11.4449
▁syrisk	-11.4451
▁øyeblikk	-11.4452
▁sjøfolk	-11.4455
før	-11.4458
skriver	-11.446
▁ofrene	-11.4464
ora	-11.4465
▁ms	-11.4466
pot	-11.4468
utviklingen	-11.4469
▁social	-11.4469
sanger	-11.4471
▁homofile	-11.4472
forbruk	-11.4473
▁fisker	-11.4474
tekst	-11.4478
▁abu	-11.4478
▁wal	-11.448
▁macao	-11.4481
fødte	-11.4481
▁batteriene	-11.4481
tap	-11.4482
▁helium	-11.4483
▁innta	-11.4488
▁retningslinjer	-11.4488
sse	-11.4489
▁engelskmennene	-11.4491
aga	-11.4493
▁heve	-11.4496
▁yu	-11.4498
show	-11.4498
▁innerst	-11.4499
gue	-11.4502
hør	-11.4502
▁hannene	-11.4503
sig	-11.4504
stoff	-11.4508
vas	-11.4511
▁4,5	-11.4512
▁public	-11.4516
▁elektrisitets	-11.4516
mid	-11.452
▁dobbel	-11.4521
▁space	-11.4521
▁170	-11.4524
bad	-11.4526
▁mora	-11.4527
▁evangeliet	-11.4531
▁åpenbaring	-11.4533
▁sårbare	-11.4533
▁tibet	-11.4533
▁bratt	-11.4534
▁nebb	-11.4544
▁tomme	-11.4545
▁vesentlige	-11.4547
virkende	-11.4548
▁westminster	-11.4548
▁haydn	-11.4548
▁hedmark	-11.4548
▁ringerike	-11.4549
▁theatre	-11.4549
▁mosjøen	-11.4549
▁1846	-11.455
▁datamaskiner	-11.455
▁igangsatt	-11.455
▁sørstatene	-11.4551
▁panikk	-11.4551
▁hindring	-11.4553
▁1819	-11.4553
død	-11.4553
▁poeter	-11.4557
▁føle	-11.4557
▁historia	-11.4558
▁mongolene	-11.4559
politiske	-11.4559
▁foretrukket	-11.4561
▁coach	-11.4561
old	-11.4562
▁forvaltning	-11.4562
▁trondhjem	-11.4564
størrelse	-11.4564
▁relieff	-11.4566
▁løpe	-11.4566
kos	-11.4568
▁vassdrag	-11.4568
▁suksessfull	-11.4572
▁grafisk	-11.4574
▁agder	-11.4577
▁kontorer	-11.458
løsning	-11.4581
øl	-11.4581
ito	-11.4585
99	-11.4587
▁adelsmenn	-11.4588
viste	-11.4588
forum	-11.4589
▁romsonde	-11.4589
▁oppgjør	-11.459
▁omdannet	-11.4592
grad	-11.4594
▁byggverk	-11.4598
sveien	-11.4599
▁sammenbrudd	-11.46
▁down	-11.46
▁dieselmotor	-11.4604
är	-11.4604
▁tenner	-11.4605
▁imellom	-11.4606
▁sunge	-11.4607
▁sri	-11.4607
▁cr	-11.4611
ith	-11.4612
-34	-11.4617
▁adenauer	-11.4617
▁rcp	-11.4617
▁entydig	-11.4617
▁forbundsdagen	-11.4617
▁profitt	-11.4617
▁robinson	-11.4618
▁disposisjon	-11.4618
▁voldsomme	-11.4618
▁suverenitet	-11.4618
▁frelse	-11.4618
▁frigjort	-11.4619
▁european	-11.4619
▁sørger	-11.4621
▁ob	-11.4623
▁sandnes	-11.4623
▁stedsnavn	-11.4623
▁life	-11.4626
tas	-11.4626
flåten	-11.463
▁innom	-11.4631
ör	-11.4634
▁utgivelser	-11.4634
▁jakten	-11.4635
▁restriksjoner	-11.4638
▁chile	-11.4638
ark	-11.4638
lar	-11.4639
▁spalte	-11.4641
▁titan	-11.4641
▁nve	-11.4642
▁lev	-11.4642
▁ref	-11.4642
▁va	-11.4643
▁kongerike	-11.4644
▁pilot	-11.4644
▁mesterskap	-11.4647
▁utviklings	-11.4649
▁pensjon	-11.465
▁fremvekst	-11.4651
▁forkastet	-11.4651
▁oppsøke	-11.4653
onia	-11.4653
▁avhengige	-11.4655
▁overveie	-11.466
▁munnen	-11.4662
-6	-11.4662
klær	-11.4665
▁slavisk	-11.4666
▁nøytral	-11.4667
kjøretøy	-11.4668
▁eies	-11.4668
styrken	-11.4673
▁sauer	-11.4675
▁moderate	-11.4676
▁eva	-11.4676
▁rug	-11.4677
▁lete	-11.4679
▁betingelser	-11.4679
bruket	-11.468
▁potensialet	-11.468
▁diktene	-11.4682
▁apostolisk	-11.4686
▁development	-11.4686
▁evakuering	-11.4686
▁hypotetisk	-11.4686
▁induksjon	-11.4686
▁begravd	-11.4686
europeiske	-11.4686
▁libya	-11.4686
▁haugesund	-11.4686
▁fl	-11.4686
▁volvo	-11.4687
▁1844	-11.4687
▁nøytralitet	-11.4688
▁kalkstein	-11.4688
heter	-11.4692
filmen	-11.4696
int	-11.47
ami	-11.4703
▁paus	-11.4703
▁moe	-11.4704
▁signaler	-11.4706
▁sultan	-11.4708
▁cook	-11.4709
▁dokumentere	-11.471
▁elefant	-11.4715
▁hiv	-11.4715
gav	-11.4716
▁trolldom	-11.4716
▁statisk	-11.4717
▁town	-11.4718
▁operaer	-11.4719
fartøy	-11.4719
▁kondensator	-11.4721
▁estisk	-11.4721
▁resulterer	-11.4722
terje	-11.4731
▁blikk	-11.4733
▁oppbygging	-11.4734
▁førti	-11.4736
▁oppga	-11.4736
vekt	-11.4737
▁hotellet	-11.4737
priser	-11.4739
årig	-11.4739
▁utveksling	-11.4745
enburg	-11.4746
▁tank	-11.4748
▁kappe	-11.4749
▁humanisme	-11.4751
▁pioner	-11.4751
▁dampen	-11.4755
▁salisbury	-11.4755
▁trygt	-11.4755
▁gjengi	-11.4756
▁wolff	-11.4757
▁logikk	-11.4757
▁philadelphia	-11.4758
▁1789	-11.4759
▁anbefaling	-11.476
▁inndeling	-11.4763
▁brune	-11.4764
▁fragmenter	-11.4764
▁toppfart	-11.4764
▁skildring	-11.4764
▁opposisjonen	-11.4766
▁lagres	-11.4767
▁paradis	-11.4771
▁beat	-11.4771
▁ragnar	-11.4772
▁musiker	-11.4772
▁debut	-11.4774
▁kara	-11.4775
holmen	-11.4779
▁attentat	-11.4781
▁nissen	-11.4782
enden	-11.4784
▁kveg	-11.4784
▁bøte	-11.4787
▁gal	-11.4792
▁gjester	-11.4792
▁månedene	-11.4794
▁forebygge	-11.4796
-24	-11.4798
lange	-11.4799
▁rytter	-11.48
eur	-11.4801
▁oversetter	-11.4802
▁heldig	-11.4802
▁synspunkter	-11.4804
▁fox	-11.4805
▁illustrere	-11.4814
▁steven	-11.4821
▁grave	-11.4823
▁wehrmacht	-11.4825
▁hongkong	-11.4825
▁arkitektonisk	-11.4825
▁imponere	-11.4825
▁våkne	-11.4825
▁kolonisering	-11.4826
▁gjenspeile	-11.4826
▁undervisnings	-11.4826
▁normannerne	-11.4826
▁alex	-11.4827
▁1834	-11.4827
▁1841	-11.4827
▁bush	-11.4829
.)	-11.483
▁3,5	-11.483
▁phil	-11.483
▁hamp	-11.4831
▁ubåten	-11.4834
▁arnold	-11.4834
▁vatikanet	-11.4836
▁kari	-11.4836
▁avtalt	-11.4837
samlingen	-11.4838
▁skien	-11.4839
▁understreket	-11.4839
▁ferie	-11.4841
▁slutter	-11.4842
▁forsvinne	-11.4843
▁testamentet	-11.4844
▁claude	-11.4844
▁håret	-11.4845
▁undergrunns	-11.4845
sette	-11.4846
ves	-11.4848
▁skulpturer	-11.4849
▁ann	-11.4852
lønn	-11.4853
kompetanse	-11.4854
▁avkommet	-11.4854
▁akutt	-11.4856
▁sporvogner	-11.4856
▁stan	-11.4856
▁ok	-11.4858
▁idéen	-11.4859
▁ter	-11.486
unt	-11.4861
▁maya	-11.4865
▁sann	-11.4865
▁skottene	-11.4866
fang	-11.4866
krav	-11.4867
innhold	-11.487
▁103	-11.487
ingene	-11.487
▁stam	-11.4871
lærer	-11.4872
▁this	-11.4878
vente	-11.4881
▁utsikt	-11.4883
▁dyrking	-11.4883
▁videreutvikle	-11.4884
war	-11.4887
▁1100	-11.4888
▁rive	-11.4888
arbeidere	-11.4889
▁128	-11.4889
▁forelske	-11.4889
kall	-11.4891
▁109	-11.4891
lad	-11.4892
vec	-11.4892
▁mesterskapet	-11.4892
▁hamlet	-11.4894
▁anmeldelse	-11.4896
▁hunerne	-11.4898
rop	-11.4899
▁model	-11.4899
▁glasgow	-11.4899
▁operativsystem	-11.4902
▁martyr	-11.4902
kjøp	-11.4902
▁astronomiske	-11.4902
▁overherredømme	-11.4903
▁hjemmet	-11.4904
ther	-11.4904
▁blinde	-11.4909
▁motivet	-11.491
▁katastrofe	-11.4911
back	-11.4911
▁nobelprisen	-11.4911
▁steve	-11.4914
fjellet	-11.4917
▁hestene	-11.4917
▁rangert	-11.4917
▁matt	-11.4918
▁bade	-11.4918
▁innbygger	-11.492
versjon	-11.4921
stasjonen	-11.4922
win	-11.4924
▁rust	-11.4926
lang	-11.4926
▁hjemlandet	-11.4928
▁point	-11.4932
▁gule	-11.4932
full	-11.4933
▁evangeliene	-11.4936
▁cal	-11.4936
▁embete	-11.4938
bevegelser	-11.4938
▁plasseringen	-11.4939
▁engel	-11.4939
▁undertrykkelse	-11.4942
▁2007.	-11.4945
▁kollapset	-11.4945
mengde	-11.4946
▁express	-11.4948
▁fisher	-11.4948
▁firma	-11.4949
ges	-11.4949
▁nøytrale	-11.4949
▁pla	-11.4953
▁hebraiske	-11.4954
-11	-11.496
linjene	-11.4961
vannet	-11.4963
ais	-11.4964
▁missouri	-11.4967
▁motstridende	-11.4967
▁søndre	-11.4967
▁påstand	-11.4967
▁kontakter	-11.4967
▁mount	-11.4967
92	-11.4968
▁diplomat	-11.4969
▁henrettelse	-11.4969
▁vurderinger	-11.4974
ure	-11.4977
▁tettere	-11.4978
▁basen	-11.498
penger	-11.4981
▁monument	-11.4981
▁field	-11.4982
kere	-11.4982
▁objektet	-11.4983
▁massiv	-11.4984
vika	-11.4985
els	-11.4988
▁internt	-11.4993
utslipp	-11.4994
▁vokalist	-11.4994
▁arrangementer	-11.4994
▁avgjørelsen	-11.4995
▁støttespillere	-11.4998
dekning	-11.4999
▁spesifik	-11.5
wan	-11.5001
skoler	-11.5004
▁brystet	-11.5005
▁beta	-11.5006
▁mak	-11.5006
▁etterfølgere	-11.5007
▁ivan	-11.5009
▁dirigent	-11.5011
frie	-11.5015
▁opprørere	-11.5015
▁transformator	-11.5015
▁rakett	-11.5016
▁håndverk	-11.5017
▁testen	-11.5019
▁ødeleggelse	-11.502
▁eierne	-11.5023
jel	-11.5026
▁hviler	-11.5026
kilde	-11.503
▁nortraship	-11.5035
▁tilslutning	-11.5038
▁upopulær	-11.5038
▁cornwall	-11.5038
▁representativ	-11.5038
▁signatur	-11.5038
skyting	-11.5038
ique	-11.5038
▁stue	-11.5038
▁isolde	-11.5038
▁analysere	-11.5039
merker	-11.504
▁bestefar	-11.5041
▁1818	-11.5042
▁stadfeste	-11.5042
▁anledningen	-11.5043
▁venstresiden	-11.5043
▁herodot	-11.5045
▁veiledning	-11.505
iya	-11.5051
▁berget	-11.5051
▁dresden	-11.5052
kammer	-11.5052
lager	-11.5054
▁gravd	-11.5054
endringer	-11.5054
iro	-11.5057
▁kne	-11.5057
amp	-11.5057
alder	-11.5057
▁båret	-11.506
▁stone	-11.5061
støtende	-11.5062
▁aust	-11.5063
sert	-11.5064
▁indisk	-11.5065
abel	-11.5065
▁ec	-11.5066
▁90-	-11.5068
▁bestått	-11.5069
▁fengselet	-11.5069
ast	-11.5072
▁svikte	-11.5073
lister	-11.5073
▁vitamin	-11.5074
▁175	-11.5076
▁alv	-11.5077
▁enhetlig	-11.5079
filmer	-11.5082
▁torget	-11.5083
iseringen	-11.5085
radio	-11.5087
▁agent	-11.5088
▁rådhus	-11.509
▁kuler	-11.5091
vendte	-11.5093
rettigheter	-11.5094
▁filosofien	-11.5095
▁blodet	-11.5096
▁komite	-11.5096
▁tilhengerne	-11.5099
▁komposisjon	-11.51
▁konferanse	-11.5102
▁konvertert	-11.5102
periode	-11.5103
▁oppfinnelsen	-11.5104
▁wis	-11.5104
▁vegger	-11.5105
stykke	-11.5106
▁eksplosiv	-11.511
▁innvendig	-11.511
▁jonathan	-11.511
▁belønning	-11.511
▁greyhound	-11.511
▁karibia	-11.511
▁kommandoen	-11.511
▁maskingevær	-11.511
utdanning	-11.511
▁norway	-11.5111
snitt	-11.5111
▁edgar	-11.5111
sme	-11.5113
▁legemidler	-11.5117
hæren	-11.5118
▁generalsekretær	-11.5119
▁tun	-11.5126
▁faglig	-11.5127
▁rekker	-11.5127
mund	-11.5128
▁syvende	-11.5128
▁snudde	-11.5133
▁gjennomgang	-11.5133
kampen	-11.5133
▁regiment	-11.5135
ado	-11.5136
▁tegningen	-11.514
▁generalen	-11.514
▁reaktor	-11.514
▁sporvidde	-11.514
▁gruvene	-11.5141
bet	-11.5141
▁oppføre	-11.5141
▁perfekt	-11.5142
▁hot	-11.5145
▁kyr	-11.5147
▁teoretiske	-11.5149
arealet	-11.5149
▁depot	-11.5151
▁forelesning	-11.5151
▁gjenopp	-11.5154
▁fjernsyns	-11.5155
▁butikker	-11.5161
trinn	-11.5162
▁forsvarer	-11.5163
glass	-11.5163
▁oldtids	-11.5166
▁pakke	-11.5167
▁kongedømmer	-11.5168
▁keltisk	-11.5168
▁mektigst	-11.5169
▁2008.	-11.517
▁eksemplar	-11.517
bøkene	-11.5171
nz	-11.5171
start	-11.5174
agende	-11.5175
▁database	-11.5178
retningen	-11.5181
▁wessex	-11.5182
▁erkebispedømme	-11.5182
▁tributt	-11.5182
▁zevs	-11.5182
▁rasjonell	-11.5182
▁utendørs	-11.5182
▁intakt	-11.5182
▁misjonærene	-11.5183
▁kh	-11.5183
▁ifra	-11.5183
erhavet	-11.5184
▁etternavn	-11.5184
▁fastsette	-11.5185
▁arbeidsplass	-11.5187
▁jernalder	-11.5188
▁jegere	-11.5188
▁progressiv	-11.5189
▁mental	-11.5189
▁løve	-11.519
▁stemmen	-11.5192
nnsiden	-11.5195
▁publisering	-11.5195
▁sar	-11.5196
▁veteran	-11.5199
▁fossile	-11.5205
▁bosted	-11.5205
▁hunnene	-11.5206
uz	-11.5206
voll	-11.5211
▁jam	-11.5212
▁snu	-11.5216
ndustrialisering	-11.5218
kart	-11.5219
100	-11.522
▁halve	-11.522
mangel	-11.5223
▁smykker	-11.5225
▁monarken	-11.5225
cat	-11.5225
grunn	-11.5228
▁melde	-11.5229
▁kanontårn	-11.5231
▁darwin	-11.5233
▁dikter	-11.5233
▁kjøle	-11.5235
▁tore	-11.5236
▁poetisk	-11.5241
▁smelte	-11.5242
ux	-11.5242
nik	-11.5244
▁isle	-11.5244
▁minoriteter	-11.5246
tung	-11.5251
▁muhammad	-11.5255
▁familiene	-11.5257
▁miljøvern	-11.5258
▁fastslått	-11.5258
▁kjærlighets	-11.526
▁fordelingen	-11.5261
▁allment	-11.5261
▁grunnleggelsen	-11.5261
▁virkemidler	-11.5261
▁mono	-11.5262
▁derby	-11.5262
forbindelser	-11.5262
kjør	-11.5263
▁vernet	-11.5265
▁senator	-11.5266
▁tinn	-11.5267
▁stortingsvalget	-11.5267
venn	-11.5267
partial	-11.5268
▁jente	-11.5268
▁hul	-11.5269
cos	-11.5269
▁henrettelsen	-11.5271
stall	-11.5271
moss	-11.5275
▁oppnås	-11.5277
▁gjeste	-11.5278
verdien	-11.5279
url	-11.5279
▁knudsen	-11.5282
biblioteket	-11.5283
▁skøyte	-11.5283
-25	-11.5287
42	-11.5288
▁brit	-11.5288
▁rutebil	-11.529
david	-11.529
skrittspartiet	-11.5292
▁diktning	-11.5294
gur	-11.5295
▁summer	-11.5296
▁drag	-11.5304
▁novelle	-11.5305
legges	-11.5305
▁liberal	-11.5308
▁valen	-11.5311
one	-11.5314
▁klokke	-11.532
▁visjon	-11.5321
sopp	-11.5322
▁sammenslåing	-11.5324
▁1660	-11.5325
skade	-11.5325
legging	-11.5327
▁proklamert	-11.5329
▁helvete	-11.5329
▁warszawa	-11.5329
▁sturlason	-11.5329
▁drukne	-11.5329
▁oppdatert	-11.533
begrepet	-11.533
▁dagligtale	-11.5331
rie	-11.5331
▁utallig	-11.5331
▁nautisk	-11.5332
▁mislykkede	-11.5333
▁landing	-11.5334
▁innspilt	-11.5335
70	-11.5335
▁europeere	-11.5337
▁københavns	-11.5337
▁skepsis	-11.5339
▁motstanderne	-11.5339
▁sosialdemokrat	-11.5339
teorien	-11.534
▁rutene	-11.5342
▁russell	-11.5342
▁skogbrann	-11.5343
▁manager	-11.5343
▁pause	-11.5346
▁80-	-11.5346
▁lambert	-11.5346
▁mindretall	-11.5347
▁tibetansk	-11.5347
▁ofring	-11.5348
▁framstille	-11.5349
ød	-11.535
▁jager	-11.535
▁herskerne	-11.5351
▁bombing	-11.5351
▁sentralisert	-11.5352
▁forskrift	-11.5353
iansk	-11.5353
▁forverret	-11.5353
▁arkeologer	-11.5355
▁home	-11.5356
makten	-11.5357
▁dukke	-11.5357
▁tiger	-11.536
▁anbefalt	-11.536
hat	-11.536
klosteret	-11.5362
▁konklusjonen	-11.5362
▁metro	-11.5364
▁apotek	-11.5365
professor	-11.5365
årige	-11.5366
▁chad	-11.5367
▁brå	-11.537
''(	-11.5371
▁forkant	-11.5373
▁datering	-11.5374
▁forbrenning	-11.5376
▁koret	-11.5377
▁drøm	-11.5379
▁kaos	-11.5383
▁meters	-11.5384
▁230	-11.5385
▁102	-11.5389
▁arktisk	-11.5389
▁spring	-11.539
hagen	-11.5391
▁pu	-11.5391
gil	-11.5394
▁luksus	-11.5396
altfor	-11.5397
▁fond	-11.5397
▁penn	-11.5397
▁potensiel	-11.5398
▁beregning	-11.5401
▁.)	-11.5402
▁vannstand	-11.5403
▁nelson	-11.5403
▁winchester	-11.5403
årsjubileum	-11.5403
▁ukentlig	-11.5403
styring	-11.5404
▁farget	-11.5406
▁modernisering	-11.5407
tale	-11.5409
▁grevinne	-11.5409
vesen	-11.5411
▁utfordring	-11.5413
▁enkeltpersoner	-11.5414
▁koalisjon	-11.5414
▁været	-11.5414
▁flak	-11.5415
▁myke	-11.5416
▁skarpe	-11.5417
▁herskeren	-11.5418
rutene	-11.5419
▁klippe	-11.5419
▁kuttet	-11.542
▁70-	-11.5423
krisen	-11.5428
▁energikilder	-11.543
▁126	-11.5431
dic	-11.5431
amerikanske	-11.5432
▁rival	-11.5432
▁gulv	-11.5433
plate	-11.5434
▁planlegge	-11.5434
▁dys	-11.5437
oslo	-11.5438
▁disk	-11.5439
text	-11.544
figur	-11.5441
▁mos	-11.5442
▁mørker	-11.5442
▁cro	-11.5442
64	-11.5446
▁døgnet	-11.5446
vitenskapelig	-11.5447
▁dialekten	-11.5449
▁milli	-11.5449
▁kanten	-11.545
▁uklar	-11.5451
▁trenings	-11.5453
▁profesjonell	-11.5454
▁thompson	-11.5456
marka	-11.5457
▁skadene	-11.5459
▁vegen	-11.5459
▁feber	-11.5461
▁europe	-11.5464
bund	-11.5467
▁danser	-11.5468
graf	-11.5469
▁2500	-11.5472
try	-11.5474
▁cy	-11.5477
yo	-11.5477
▁istanbul	-11.5478
▁nsdap	-11.5478
▁polakker	-11.5478
▁vakuum	-11.5478
▁oppbevare	-11.5478
▁bagdad	-11.5478
▁sammenlikne	-11.5478
▁thomson	-11.5478
▁fots	-11.5479
▁presentasjon	-11.5479
▁forlangt	-11.5479
▁isaac	-11.5479
rak	-11.548
▁rolig	-11.548
guden	-11.5481
▁com	-11.5482
▁halsen	-11.5483
è	-11.5486
▁samfunnene	-11.5487
▁legion	-11.549
vent	-11.5491
▁billboard	-11.5492
▁gun	-11.5492
sosialistene	-11.5494
berget	-11.5494
▁buen	-11.5497
▁watch	-11.5498
næs	-11.5499
04	-11.5499
▁overordnet	-11.55
mis	-11.5502
▁tydelige	-11.5502
▁beherske	-11.5507
▁innsatte	-11.5508
▁skvadron	-11.5508
▁fortet	-11.5511
▁kjernefysisk	-11.5512
▁yrke	-11.5513
▁rogers	-11.5514
▁hang	-11.5514
ortodoks	-11.5516
▁diplomati	-11.5516
produsenten	-11.5517
▁lasten	-11.5517
▁svarer	-11.5517
▁isak	-11.552
▁øks	-11.5523
▁sjøslag	-11.5525
▁moore	-11.5527
årskrigen	-11.5527
▁1–	-11.5529
▁datterselskap	-11.553
skjær	-11.5532
▁virksomheter	-11.5535
lei	-11.5537
▁støt	-11.5538
▁marshall	-11.5539
stand	-11.554
▁oppdager	-11.554
▁ozon	-11.5541
▁arméen	-11.5542
▁leirene	-11.5544
▁hoppe	-11.5544
▁inntak	-11.5545
struktur	-11.5546
▁turnering	-11.5546
▁karneval	-11.5548
▁svømme	-11.5552
haus	-11.5553
reiser	-11.5553
▁macintosh	-11.5553
▁usedvanlig	-11.5553
▁nektar	-11.5553
▁arnulf	-11.5553
▁omsorg	-11.5553
rim	-11.5555
▁beboere	-11.5557
72	-11.5557
▁bombingen	-11.5558
88	-11.5558
▁trygg	-11.5563
▁henvist	-11.5564
▁diktatur	-11.5564
▁løpehjulet	-11.5565
▁bløt	-11.5565
▁unger	-11.5567
gods	-11.557
▁20-	-11.5571
▁wu	-11.5571
▁legemet	-11.5572
▁indianer	-11.5573
▁uni	-11.5575
▁rifle	-11.5577
sim	-11.5577
ement	-11.5579
reise	-11.5579
▁ulykke	-11.5579
▁bevegelig	-11.5584
▁turister	-11.5584
▁hvalfangst	-11.5586
▁erfaringen	-11.5586
▁klatre	-11.5587
▁problematisk	-11.5588
ass	-11.5588
▁turné	-11.559
▁overlever	-11.559
▁antennen	-11.559
▁sed	-11.5591
▁bølgen	-11.5592
kors	-11.5593
▁game	-11.5596
▁stripe	-11.5596
▁111	-11.5597
▁lokalbefolkning	-11.5598
▁mandag	-11.5599
▁bystyret	-11.56
▁festninger	-11.5605
brett	-11.5607
▁lp	-11.561
▁atskilt	-11.5611
-7	-11.5612
▁tankegang	-11.5612
▁superman	-11.5612
▁sonen	-11.5613
day	-11.5614
▁diskusjoner	-11.5614
▁rating	-11.5615
▁kvante	-11.5618
person	-11.562
▁traktat	-11.5621
▁leses	-11.5621
▁sverdet	-11.5622
▁borgerskap	-11.5622
▁nettverket	-11.5626
az	-11.5627
▁gerhard	-11.5628
▁antwerpen	-11.5629
▁committee	-11.5629
▁commission	-11.5629
▁benedikt	-11.5629
▁menneskeskapte	-11.5629
▁sørensen	-11.563
▁prøyssiske	-11.5631
▁tunnelen	-11.5632
▁forræderi	-11.5632
▁hermes	-11.5634
▁listet	-11.5635
▁innblanding	-11.5636
▁tegneserier	-11.564
▁periodisk	-11.5641
smann	-11.5645
▁hovedbygningen	-11.5646
▁stimulere	-11.5646
▁undervisningen	-11.5648
▁ven	-11.5651
▁1850-	-11.5651
▁kulde	-11.5653
▁fallhøyde	-11.5665
▁historikerne	-11.5665
▁grein	-11.5666
▁}{	-11.5666
flaten	-11.5669
▁individet	-11.5671
zel	-11.5673
▁avgi	-11.5674
▁trommer	-11.5674
▁isbreer	-11.5675
▁cam	-11.5675
▁revisjon	-11.5677
▁garden	-11.5677
▁skriftspråk	-11.5678
moen	-11.5681
ova	-11.5681
▁steen	-11.5683
anstalt	-11.5684
▁wolf	-11.5685
▁videreføre	-11.5686
▁rum	-11.5688
300	-11.5689
▁offeret	-11.569
▁dokumentene	-11.569
▁jakte	-11.5692
▁matteus	-11.5696
rende	-11.5699
▁dokumentet	-11.5699
lån	-11.57
spørsmål	-11.57
dun	-11.5701
▁trengs	-11.5703
▁delstat	-11.5704
bak	-11.5704
▁ekvator	-11.5705
▁ambisiøs	-11.5705
▁ubetydelig	-11.5705
▁lawrence	-11.5705
dos	-11.5705
▁operasjonen	-11.5706
▁sivilisasjonen	-11.5707
▁titalls	-11.5707
alle	-11.5709
▁baglerne	-11.571
metoden	-11.5711
▁fisket	-11.5713
▁utforske	-11.5713
▁jane	-11.5716
▁lenin	-11.5718
▁lava	-11.5718
sø	-11.5719
▁viken	-11.5719
▁brett	-11.572
▁økologisk	-11.5721
▁krigene	-11.573
▁myten	-11.5731
▁amerikanere	-11.5733
gruppene	-11.5733
deling	-11.5737
▁oppløse	-11.5738
▁orientering	-11.574
▁dia	-11.574
▁kjennes	-11.5745
town	-11.5746
▁gru	-11.5746
kunnskap	-11.5747
åsen	-11.5749
▁slagord	-11.5751
ash	-11.5751
settes	-11.5751
▁panel	-11.5753
celler	-11.5753
pius	-11.5754
vegen	-11.5755
kl	-11.5755
lø	-11.5756
▁modne	-11.576
▁liberalisme	-11.5762
▁ledsage	-11.5765
▁jernbaneselskap	-11.5765
▁fair	-11.5767
▁frogner	-11.5771
▁artist	-11.5772
▁urolig	-11.5776
▁deltagere	-11.5776
▁utøver	-11.5779
▁academy	-11.5782
▁ramses	-11.5782
▁årtusen	-11.5782
▁review	-11.5782
▁velkommen	-11.5782
▁telenor	-11.5782
ias	-11.5782
▁meta	-11.5782
wo	-11.5783
▁frederick	-11.5783
▁gjenopptatt	-11.5783
▁symbolisere	-11.5783
videreutviklet	-11.5786
▁hollywood	-11.5788
oo	-11.579
figurer	-11.5792
▁underart	-11.5793
▁oppvarmingen	-11.5793
▁campbell	-11.5794
▁tropp	-11.5798
▁hærfører	-11.58
▁frei	-11.5802
▁stabilt	-11.5803
▁fusjonert	-11.5806
bind	-11.5807
▁spinn	-11.5808
▁angelsaksere	-11.5809
▁enstemmig	-11.5809
▁klimagasser	-11.5811
log	-11.5814
verdier	-11.5815
▁arrestasjon	-11.5816
▁forutsette	-11.5818
▁main	-11.5819
sby	-11.5819
sentral	-11.582
▁publikasjoner	-11.5821
materiale	-11.5822
"	-11.5824
▁board	-11.5824
▁appell	-11.5824
utstillingen	-11.5826
hai	-11.5827
▁etiopiske	-11.5829
▁muslimene	-11.583
bord	-11.583
▁127	-11.5832
motoren	-11.5833
bussene	-11.5835
▁norgeshistorie	-11.5835
▁vaksiner	-11.5837
▁get	-11.5837
▁konklusjon	-11.5838
▁vurderes	-11.5842
▁marginal	-11.5843
ruten	-11.5851
▁hengest	-11.5854
nom	-11.5854
▁renner	-11.5855
▁semi	-11.5856
▁kra	-11.5857
▁bonaparte	-11.5859
▁sokrates	-11.5859
▁versailles	-11.5859
▁clarence	-11.5859
▁hastings	-11.5859
▁rovdyr	-11.5859
▁edison	-11.586
▁råvare	-11.586
▁1843	-11.5861
▁lilleasia	-11.5861
▁peer	-11.5861
▁sirius	-11.5863
▁arsenal	-11.5864
▁fylkesvei	-11.5864
▁rekken	-11.5864
▁forsterker	-11.5864
rid	-11.5865
kode	-11.5865
▁1812	-11.5865
▁magnusson	-11.5865
pur	-11.5866
uck	-11.5866
78	-11.5867
▁hjulene	-11.5868
▁bitt	-11.5869
▁perserne	-11.5869
▁145	-11.587
▁straffen	-11.5873
stan	-11.5875
▁kamera	-11.5875
▁passiv	-11.5876
▁propell	-11.5878
▁gr	-11.5879
▁pont	-11.588
fabrik	-11.588
▁buddhismen	-11.5881
▁alfabetet	-11.5882
▁garnisonen	-11.5883
▁institusjonen	-11.5883
▁kvote	-11.5889
▁cellene	-11.5891
▁sjekke	-11.5893
▁konsentrasjons	-11.5894
▁daily	-11.5894
▁klostrene	-11.5895
▁monark	-11.5896
standard	-11.5896
▁cand	-11.5897
▁delingen	-11.5897
logi	-11.5898
▁gla	-11.59
holder	-11.5901
▁kontra	-11.5901
ettigheter	-11.5903
▁doktor	-11.5904
▁dreadnought	-11.5904
▁night	-11.5909
▁kaliber	-11.591
▁avgrenset	-11.591
▁nedleggelse	-11.591
▁pakt	-11.591
▁lysere	-11.5912
▁undersått	-11.5912
▁bang	-11.5914
farne	-11.5914
▁lovte	-11.5915
▁flyttes	-11.5916
▁minoritet	-11.5916
▁opplagt	-11.5916
▁bekjempet	-11.5919
dans	-11.5919
▁monumentet	-11.5921
▁bird	-11.5922
▁tan	-11.5922
▁forlik	-11.5926
▁særegen	-11.5927
fallet	-11.5927
▁rights	-11.5928
▁dampmaskin	-11.5928
▁oppløsningen	-11.5931
skatt	-11.5932
▁116	-11.5934
▁col	-11.5934
▁demonstrere	-11.5937
▁distribuert	-11.5937
▁kvalifisere	-11.5937
▁tennessee	-11.5937
▁goethe	-11.5938
▁utropt	-11.5938
▁hjulpet	-11.5938
▁romulus	-11.5938
▁støpt	-11.5938
▁fremheve	-11.5938
tyske	-11.5938
▁sitere	-11.5938
▁claudius	-11.5938
▁tidsrommet	-11.5939
▁1790	-11.5939
▁uniform	-11.5939
▁guddom	-11.5939
▁europeerne	-11.594
▁storhetstid	-11.594
marked	-11.594
▁101	-11.5944
ordninger	-11.5944
▁tyngdekraft	-11.5944
sprogram	-11.5944
▁herred	-11.595
▁drifts	-11.595
▁illustrasjon	-11.5951
▁hyper	-11.5952
▁vestsiden	-11.5952
derved	-11.5954
▁1300	-11.5955
▁godkjennelse	-11.5958
▁nordpolen	-11.5958
▁vikingene	-11.5959
▁gjenforening	-11.5959
▁landområdene	-11.5961
▁gener	-11.5963
korps	-11.5964
aria	-11.5964
▁loft	-11.5965
sete	-11.5967
kurs	-11.5969
▁avhør	-11.5971
▁føydal	-11.5973
krone	-11.5974
▁cassin	-11.5975
▁matematikken	-11.5975
▁1550	-11.5976
▁gjennomgikk	-11.5976
▁utryddet	-11.5977
▁justis	-11.5979
▁stemning	-11.598
tilstand	-11.5981
▁leste	-11.5982
▁ray	-11.5983
48	-11.5984
▁tøy	-11.5986
▁fortsettelse	-11.5986
▁mik	-11.5987
▁kurt	-11.5987
hånd	-11.599
▁kanonene	-11.5991
lla	-11.5994
▁kost	-11.5995
▁monte	-11.5998
▁fargerik	-11.5999
rill	-11.6
cor	-11.6002
▁yte	-11.6004
▁laks	-11.6005
øv	-11.6005
▁tildeling	-11.6006
▁plasserer	-11.6008
▁søk	-11.6009
▁char	-11.6012
▁instrumental	-11.6013
▁rem	-11.6014
▁senior	-11.6016
▁svoger	-11.6016
▁sirkus	-11.6016
▁stamfar	-11.6017
▁kelter	-11.6017
▁sophie	-11.6017
mai	-11.6018
▁forsoning	-11.6019
vid	-11.6022
▁inni	-11.6022
▁end	-11.6022
aker	-11.6023
▁cur	-11.6024
▁tragisk	-11.6024
▁skule	-11.6026
▁ektefelle	-11.6026
▁kanadisk	-11.6028
▁}\	-11.6029
sir	-11.6029
▁riksrådet	-11.6031
▁betraktning	-11.6031
aas	-11.6031
▁khazarene	-11.6035
▁afrikansk	-11.6037
–20	-11.6041
▁franco	-11.6043
▁tjenere	-11.6044
▁fre	-11.6044
▁døpe	-11.6045
▁finale	-11.6046
▁sim	-11.6046
konstruksjoner	-11.6048
▁mol	-11.6048
▁fiber	-11.6048
▁lokke	-11.6048
▁sakrament	-11.6049
teknikken	-11.6049
lunde	-11.605
▁kristin	-11.6051
▁buddhistisk	-11.6052
▁fylker	-11.6053
▁sogneprest	-11.6053
▁gjeng	-11.6054
syklusen	-11.6056
▁herske	-11.6056
▁108	-11.6058
▁alba	-11.6059
kilder	-11.606
serier	-11.6061
▁populasjon	-11.6061
▁hjemmeside	-11.6062
▁bevæpnet	-11.6062
▁seremoni	-11.6063
sektoren	-11.6063
levninger	-11.6066
orden	-11.6066
▁syklon	-11.6069
▁okse	-11.6071
▁garnison	-11.6071
▁vinkle	-11.6071
▁spiral	-11.6072
bes	-11.6075
▁realisme	-11.6078
▁fasaden	-11.6078
ire	-11.6079
▁mage	-11.608
▁objektiv	-11.6081
55	-11.6085
▁binder	-11.6086
medlem	-11.6086
▁troverdig	-11.6087
▁italias	-11.6088
▁andreplass	-11.6089
▁glad	-11.6091
▁tidsrom	-11.6092
▁never	-11.6093
▁regissør	-11.6094
▁oven	-11.6095
▁offshore	-11.6096
▁parlamentarisme	-11.6096
▁protektorat	-11.6096
▁aircraft	-11.6096
▁usikre	-11.6097
▁stasjoner	-11.6097
▁reelt	-11.6098
▁drosje	-11.6098
▁svømmer	-11.61
▁pluto	-11.61
▁eksplisitt	-11.6101
▁avgjør	-11.6101
aks	-11.6101
▁gruvedrift	-11.6105
▁samtids	-11.6106
▁fullmakt	-11.6108
▁bestilling	-11.6108
▁naken	-11.6109
taket	-11.6109
▁==	-11.6109
ain	-11.6111
▁nedsette	-11.6112
▁innvilget	-11.6113
▁aggresjon	-11.6113
▁idéer	-11.6116
▁vestkysten	-11.6118
▁utvandret	-11.6121
▁ash	-11.6122
▁fangeleir	-11.6124
▁traktor	-11.6127
gram	-11.6129
cent	-11.6134
▁forby	-11.6136
▁kapteinen	-11.6136
kina	-11.6137
▁oversvømmelse	-11.614
sområde	-11.6141
zen	-11.6141
▁meteorologisk	-11.6141
▁bremse	-11.6145
▁turing	-11.6146
▁rat	-11.6147
▁146	-11.6147
terapi	-11.6148
▁bella	-11.615
▁klubber	-11.6152
▁finger	-11.6155
▁prinsippene	-11.6155
▁nyheten	-11.6156
▁thi	-11.616
32	-11.6161
▁kår	-11.6162
▁binding	-11.6162
▁mul	-11.6164
▁play	-11.6165
aya	-11.6166
▁smør	-11.617
▁buddhisme	-11.6171
67	-11.6171
▁koch	-11.6172
▁begrunnelsen	-11.6173
500	-11.6173
rød	-11.6174
▁skuespillet	-11.6174
ging	-11.6174
▁administrert	-11.6176
▁khrusjtsjov	-11.6176
▁unesco	-11.6176
▁riksdaler	-11.6176
▁francesco	-11.6176
▁bærum	-11.6177
▁falk	-11.6177
▁trives	-11.6177
▁eric	-11.6178
skapet	-11.6178
▁adresse	-11.6178
steorien	-11.6179
▁kaldt	-11.6179
ritt	-11.6179
▁raste	-11.618
ali	-11.6182
▁virus	-11.6183
▁konkurrent	-11.6185
ile	-11.6186
▁akse	-11.6186
▁musik	-11.6188
▁treff	-11.6189
▁wedel	-11.619
▁etterlate	-11.6192
▁adelsmann	-11.6192
gt	-11.6196
▁statskupp	-11.6196
steinen	-11.6197
▁bjelke	-11.6201
zu	-11.6203
▁rødliste	-11.6203
høyde	-11.6204
avfall	-11.6205
somme	-11.6208
▁kommandør	-11.6208
symbol	-11.6209
▁sosiologi	-11.6212
▁kommunismen	-11.6214
sdagen	-11.6215
▁donert	-11.6216
▁jacobsen	-11.6217
▁134	-11.6217
▁forsikre	-11.6217
▁meldinger	-11.6218
▁wil	-11.622
▁fans	-11.622
grense	-11.6222
▁æres	-11.6222
▁dører	-11.6225
▁regnskap	-11.6227
▁strømning	-11.6227
▁betjene	-11.6229
▁faser	-11.6229
▁taktikk	-11.6229
▁motivert	-11.623
▁innebære	-11.6231
-30	-11.6232
▁5-	-11.6232
▁oc	-11.6232
▁ønskelig	-11.6233
▁kostbart	-11.6234
utgave	-11.6235
▁jar	-11.6235
▁240	-11.6236
agder	-11.6236
▁mordet	-11.6239
▁koordinat	-11.6239
▁dekret	-11.624
▁stridighete	-11.624
byrå	-11.6244
▁slangen	-11.6246
▁sedimenter	-11.6246
▁transporten	-11.6247
▁teoriene	-11.625
rang	-11.625
kken	-11.6251
▁drage	-11.6251
▁hand	-11.6251
▁tåke	-11.6252
ald	-11.6252
▁seksten	-11.6253
▁tolkningen	-11.6254
▁leverandør	-11.6256
▁novgorod	-11.6256
▁pamflett	-11.6256
▁annektert	-11.6256
▁beboerne	-11.6256
▁inskripsjonen	-11.6256
▁speider	-11.6256
▁buddha	-11.6257
▁atomvåpen	-11.6257
▁0,5	-11.6258
▁mes	-11.6259
herty	-11.626
▁produsenten	-11.626
▁th	-11.6261
▁joachim	-11.6261
▁1650	-11.6261
▁rakk	-11.6263
▁likte	-11.6265
lem	-11.6267
▁arbeiderklassen	-11.6269
hjem	-11.627
▁civil	-11.627
vit	-11.6272
▁kometen	-11.6272
▁kineserne	-11.6272
▁skifter	-11.6273
▁raseri	-11.6273
▁manus	-11.6274
▁misjonær	-11.6275
feil	-11.6275
forbindelse	-11.6276
▁hjørnet	-11.6277
▁tykkelse	-11.6278
▁pad	-11.6279
▁brytes	-11.6279
▁partner	-11.628
veier	-11.6281
▁vri	-11.6282
▁kongemakten	-11.6282
cho	-11.6284
fon	-11.6287
▁spitsbergen	-11.6288
▁sentrert	-11.6288
▁klager	-11.6292
▁mitt	-11.6292
▁dømte	-11.6292
▁gra	-11.6297
▁samspill	-11.6299
▁sjansen	-11.6301
▁alter	-11.6303
ål	-11.6304
▁bataljon	-11.6305
▁slakte	-11.6313
▁medikament	-11.6314
▁søyler	-11.6316
bas	-11.632
dekkende	-11.632
▁partileder	-11.632
▁feiring	-11.6321
▁hytte	-11.6323
▁diligence	-11.6323
▁forgjenger	-11.6324
▁nevne	-11.6324
▁fjorten	-11.6325
▁137	-11.6327
nce	-11.6327
▁fargene	-11.6329
▁regjerte	-11.633
▁egil	-11.6334
▁hjelm	-11.6334
tos	-11.6336
▁statuer	-11.6336
▁stall	-11.6337
▁hårfagre	-11.6337
▁katastrofal	-11.6337
▁herrelandslag	-11.6337
▁nyopprette	-11.6337
▁nkp	-11.6338
▁gjøvik	-11.6338
▁uoffisiell	-11.6338
▁107	-11.6338
▁tilbaketrekning	-11.6338
▁hovedpersonen	-11.6339
▁nettbuss	-11.6339
▁verdsatt	-11.634
▁blank	-11.6342
▁slesvig	-11.6343
▁suge	-11.6344
nevnte	-11.6345
▁stefans	-11.6345
▁tilegne	-11.6346
uit	-11.635
▁ulven	-11.635
erik	-11.6352
▁sonden	-11.6354
prest	-11.6355
▁try	-11.6356
▁kommersiel	-11.6357
▁sprint	-11.6358
21	-11.6358
▁racing	-11.6359
wick	-11.636
turen	-11.636
▁ettermiddagen	-11.636
nan	-11.6363
▁perle	-11.6363
▁fyrste	-11.6364
▁avskjed	-11.6366
▁lurt	-11.6366
▁forenkle	-11.6367
stone	-11.6367
▁residens	-11.637
spillet	-11.6371
▁pas	-11.6373
▁gjestene	-11.6373
stillinger	-11.6376
▁mart	-11.6376
▁abel	-11.6379
▁dødelig	-11.638
▁kongedømmene	-11.6381
salen	-11.6381
▁trone	-11.6389
snorre	-11.6389
fjær	-11.639
▁rotor	-11.6391
▁moses	-11.6391
mit	-11.6394
▁liber	-11.6396
200	-11.6398
▁branner	-11.6399
palasset	-11.6399
▁registrering	-11.6399
▁mistenkt	-11.6403
egenskaper	-11.6405
58	-11.6405
▁åland	-11.6408
tain	-11.6412
▁spiss	-11.6416
▁skar	-11.6416
▁spekter	-11.6417
front	-11.6417
▁primitiv	-11.6418
▁ekstraordinær	-11.6419
▁himmler	-11.6419
▁krydder	-11.6419
▁kritisere	-11.6419
▁slagmarken	-11.6419
▁lingvistikk	-11.642
▁rap	-11.642
▁narvik	-11.642
▁halvbror	-11.642
▁boikott	-11.642
▁sylinder	-11.6421
▁1830-	-11.6421
▁avgjørelser	-11.6422
▁2020	-11.6424
▁kartlegge	-11.6425
▁hovedrollen	-11.6427
punktet	-11.6428
▁tilsier	-11.6428
▁orknøyene	-11.6428
vekst	-11.6429
▁overlappe	-11.643
sor	-11.643
▁forbehold	-11.6431
▁voldsom	-11.6432
drakt	-11.6435
▁anla	-11.6435
▁allegori	-11.6435
▁uventet	-11.6435
▁kulten	-11.6436
▁ruge	-11.6438
▁diskriminering	-11.6442
▁særdeles	-11.6444
▁airlines	-11.6444
▁hem	-11.6445
▁ørkenen	-11.6445
funn	-11.6446
▁anbefale	-11.6447
ual	-11.6448
▁skjønn	-11.6448
aften	-11.645
▁single	-11.6451
analyse	-11.6451
▁universitetene	-11.6452
▁dyktighet	-11.6453
▁geir	-11.6456
mod	-11.6456
ology	-11.6457
▁hule	-11.6459
▁tel	-11.6459
forbindelsen	-11.6461
gjøre	-11.6461
▁ørn	-11.6461
▁orkan	-11.6461
▁2–	-11.6462
▁permanente	-11.6463
▁maksimalt	-11.6465
▁reservert	-11.6465
drama	-11.6465
▁syklus	-11.6466
vurdering	-11.6471
▁rana	-11.6473
▁sinn	-11.6473
▁gm	-11.6475
▁sild	-11.6475
▁christ	-11.6476
▁landbruket	-11.6476
▁trange	-11.6478
sevne	-11.648
▁andré	-11.648
bod	-11.6482
▁løytnant	-11.6483
▁bøter	-11.6483
▁teste	-11.6484
▁sannheten	-11.6485
▁marg	-11.6488
luft	-11.6488
▁helikopter	-11.6488
▁spennings	-11.6488
02	-11.6489
▁lyrikk	-11.649
▁fødselen	-11.6492
tøy	-11.6496
▁é	-11.6496
▁forretning	-11.6496
ingeniør	-11.6497
▁vasall	-11.6498
▁avslutningen	-11.6499
▁indikert	-11.6502
utvalget	-11.6502
▁madrid	-11.6502
▁langsiktig	-11.6502
▁jordoverflaten	-11.6503
▁ingeborg	-11.6503
▁ideene	-11.6503
▁lastebiler	-11.6503
▁kanaan	-11.6504
▁gårdsbruk	-11.6505
▁kompakt	-11.6505
▁forestille	-11.6506
▁aksjoner	-11.6506
▁saxo	-11.6507
▁por	-11.6508
▁vandalene	-11.6509
▁dipol	-11.651
▁presidentvalget	-11.651
hei	-11.651
nytt	-11.651
▁murene	-11.6512
▁pensjonert	-11.6517
bahn	-11.6518
▁herren	-11.6525
▁oppnevnt	-11.6527
sosialisme	-11.653
rev	-11.6531
▁introdusere	-11.6531
▁fiction	-11.6533
▁more	-11.6533
ón	-11.6535
▁kunstverk	-11.6536
▁verdenskrigen	-11.6538
▁jage	-11.6539
▁divisjonen	-11.654
▁mose	-11.6541
▁anslags	-11.6541
▁locke	-11.6542
▁måling	-11.6543
▁hitlers	-11.6543
▁atomer	-11.6544
varme	-11.6544
▁mongolsk	-11.6545
▁beretning	-11.6547
▁german	-11.6548
head	-11.6548
spartiet	-11.6549
▁indianere	-11.655
omhandler	-11.6556
national	-11.6556
▁lagd	-11.6557
upp	-11.6558
sland	-11.6559
▁motivasjon	-11.6561
▁uk	-11.6564
skilt	-11.6564
87	-11.6565
rig	-11.6569
gro	-11.6571
▁eus	-11.6571
▁skjelett	-11.6573
▁legemiddel	-11.6575
▁pc	-11.6575
iri	-11.6575
▁nilsen	-11.6575
seier	-11.6577
▁tjenestemenn	-11.6581
▁samlere	-11.6581
▁atomene	-11.6583
▁illustrasjoner	-11.6585
▁aquitaine	-11.6585
▁prominent	-11.6585
▁dvd	-11.6585
▁montenegro	-11.6585
▁overbevisning	-11.6585
▁collett	-11.6586
▁knud	-11.6586
▁tynt	-11.6586
▁bekrefter	-11.6586
▁goterne	-11.6587
▁jødedommen	-11.6587
▁kairo	-11.6587
▁imøtekomme	-11.6588
▁skikkelig	-11.6588
▁1816	-11.6588
høy	-11.6588
▁asyl	-11.6588
▁1822	-11.6589
▁utveksle	-11.659
▁jagerfly	-11.659
▁138	-11.6591
▁hurtige	-11.6592
▁leiegård	-11.6593
▁avbildning	-11.6593
▁etterligne	-11.6593
bury	-11.6593
▁jacques	-11.6594
selskapene	-11.6594
▁forbruker	-11.6597
▁teateret	-11.6598
▁kongefamilien	-11.6598
▁medlems	-11.66
▁julen	-11.66
▁cre	-11.6601
▁kroatisk	-11.6601
▁morris	-11.6602
familie	-11.6603
▁deltagerne	-11.6603
▁forutsett	-11.6604
▁anke	-11.6605
▁forvalte	-11.6605
▁sydpolen	-11.6606
tte	-11.661
▁kalenderen	-11.6612
▁fremdrift	-11.6613
språklige	-11.6613
▁sammenslutning	-11.6615
▁136	-11.6616
behov	-11.6617
▁semifinalen	-11.6617
▁mit	-11.662
wald	-11.662
formasjoner	-11.6629
nas	-11.6633
ider	-11.6634
▁olympia	-11.6635
zin	-11.6636
reisende	-11.6637
▁fir	-11.6637
lum	-11.6638
▁edda	-11.6639
▁fuglen	-11.664
▁tunneler	-11.6641
▁trend	-11.6644
▁ånden	-11.6644
mens	-11.6645
▁bokser	-11.6645
▁vilkårlig	-11.6646
▁bombet	-11.6647
sprosess	-11.665
jern	-11.6651
▁studies	-11.6651
born	-11.6653
▁forsikring	-11.6655
▁galleri	-11.6656
▁your	-11.6658
▁autonom	-11.6659
▁kongress	-11.6661
▁forlengelse	-11.6662
▁kenya	-11.6663
▁ravn	-11.6667
▁rapportere	-11.6667
▁granat	-11.6667
hercegovina	-11.6669
▁gjemt	-11.6669
▁kommandert	-11.6669
▁unnslippe	-11.6669
▁bomull	-11.667
▁svartedauden	-11.667
▁birger	-11.667
▁friidrett	-11.667
▁assosiasjon	-11.667
▁lanka	-11.667
fel	-11.667
▁bedrift	-11.6671
▁modernisert	-11.6671
▁arven	-11.6673
▁cia	-11.6674
litt	-11.6675
▁axel	-11.6677
▁hawaii	-11.6679
▁avvise	-11.6679
bat	-11.6679
▁tvert	-11.6679
▁overstige	-11.6681
▁fruktbare	-11.6683
▁sump	-11.6686
▁streik	-11.6686
▁bergart	-11.6686
brua	-11.6686
▁mhz	-11.6686
▁agenter	-11.6686
09	-11.6689
▁seremonien	-11.6689
▁hedre	-11.6689
▁konfliktene	-11.6689
▁avholde	-11.669
▁bokstavene	-11.669
▁milliard	-11.6691
▁bry	-11.6691
oz	-11.6691
gard	-11.6693
▁tilførsel	-11.6694
▁følsom	-11.6697
▁arkiver	-11.6697
▁stikker	-11.6697
▁bagasje	-11.6697
▁sene	-11.6698
gin	-11.67
▁benekte	-11.6702
▁elektronikk	-11.6703
▁japans	-11.6705
▁planten	-11.6706
ond	-11.6707
▁mei	-11.6711
▁dekar	-11.6711
▁epidemi	-11.6712
driften	-11.6715
qua	-11.6716
sikkerhet	-11.6717
▁overhode	-11.6718
smenn	-11.6722
▁kavaleriet	-11.6723
hastigheten	-11.6724
▁format	-11.6724
▁aar	-11.6725
▁oppholde	-11.673
1-	-11.6731
▁ødeleggelser	-11.6734
▁dur	-11.6737
▁brennevin	-11.6738
▁troppen	-11.6739
dri	-11.674
▁kall	-11.6742
▁forstørre	-11.6744
▁maa	-11.6748
▁absorbert	-11.6754
▁scenario	-11.6754
▁særegne	-11.6754
▁sporadisk	-11.6754
▁foundation	-11.6754
▁visepresident	-11.6755
ière	-11.6755
▁bahai	-11.6756
blant	-11.6756
aro	-11.6757
▁hurtigbåt	-11.676
▁folkemusikk	-11.6762
▁konsilet	-11.6764
ides	-11.6764
▁cicero	-11.6764
mond	-11.6766
kommunistpartiet	-11.6767
skrivning	-11.6767
▁kreditt	-11.6767
▁norman	-11.6771
73	-11.6771
▁advare	-11.6772
norges	-11.6772
▁geo	-11.6773
blå	-11.6776
-22	-11.6776
▁vitenskaps	-11.6778
kis	-11.6779
▁lau	-11.6779
▁rek	-11.6779
▁fester	-11.678
sarbeidet	-11.6781
gne	-11.6783
▁usd	-11.6784
prinsippet	-11.6787
ipp	-11.6788
▁moon	-11.6791
ato	-11.6793
▁føtter	-11.6794
▁løses	-11.6795
▁justisminister	-11.6797
adils	-11.6798
▁utgravningen	-11.6799
▁cho	-11.6799
▁erich	-11.6802
▁levering	-11.6803
▁svikt	-11.6804
▁øyeblikket	-11.6807
▁arktis	-11.6811
▁havnivå	-11.6812
▁varsel	-11.6814
▁kobling	-11.6814
▁veide	-11.6815
▁mach	-11.6816
utgiftene	-11.6817
▁rekonstruksjon	-11.6819
dømme	-11.682
▁underhuset	-11.682
▁ressursene	-11.6821
hol	-11.6821
▁ernest	-11.6824
▁guvernøren	-11.6824
▁holmen	-11.6825
▁eliten	-11.6825
▁flamme	-11.6826
▁utkanten	-11.6827
zy	-11.683
misjon	-11.6831
▁50-	-11.6831
▁lojale	-11.6832
▁shi	-11.6833
informasjon	-11.6835
▁133	-11.6836
▁forhistorisk	-11.6837
▁nth	-11.6839
▁trygve	-11.684
▁utilstrekkelig	-11.684
▁synkron	-11.684
▁rumensk	-11.684
▁fuglestad	-11.6841
▁frp	-11.6842
bundsrepublikken	-11.6842
▁race	-11.6843
▁utgiver	-11.6843
▁valley	-11.6844
osa	-11.6844
▁tokyo	-11.6845
▁høring	-11.6845
▁malcolm	-11.6845
▁2100	-11.6845
▁røros	-11.6847
▁1801	-11.6849
▁brandenburg	-11.6851
▁illusjon	-11.6852
▁fuktig	-11.6852
▁soner	-11.6854
▁bestemmelse	-11.6855
▁variasjonen	-11.6855
▁åpnings	-11.6855
lyst	-11.6856
▁aktørene	-11.6859
▁kommunist	-11.686
▁forordning	-11.6863
▁139	-11.6863
▁tyngde	-11.6863
▁lapp	-11.6864
▁fascisme	-11.6864
▁høyhastighets	-11.6868
▁gevær	-11.6868
nus	-11.6868
▁fremførte	-11.6869
▁strids	-11.6869
▁veto	-11.6871
merket	-11.6872
▁indikere	-11.6872
▁germansk	-11.6873
lingen	-11.6874
▁detaljene	-11.6876
komst	-11.6876
natur	-11.6878
anger	-11.688
▁oppheve	-11.688
▁menes	-11.6881
▁bladene	-11.6882
▁næringen	-11.6886
▁framtid	-11.6887
▁puste	-11.6887
▁akademiet	-11.6887
▁helten	-11.6887
▁baltisk	-11.6889
pop	-11.6891
▁slaveriet	-11.6893
vil	-11.6894
peter	-11.6894
▁ilden	-11.6895
iteten	-11.6895
▁kin	-11.6896
▁husholdninger	-11.6897
▁endog	-11.6901
▁ekspert	-11.6902
▁levi	-11.6903
komité	-11.6904
▁formene	-11.6904
▁arbeiderparti	-11.6905
rygg	-11.6905
▁skogs	-11.6906
motorer	-11.6906
breen	-11.6908
▁ruinene	-11.6908
ington	-11.6909
▁befal	-11.6909
pha	-11.6909
massen	-11.6909
▁non	-11.691
sket	-11.6912
▁elektronet	-11.6914
forlaget	-11.6914
bart	-11.6915
▁dingo	-11.6918
rette	-11.692
lederen	-11.6923
omega	-11.6923
farge	-11.6924
▁barokk	-11.6926
▁anglikansk	-11.6926
▁retorikk	-11.6926
▁retrieved	-11.6926
▁zimbabwe	-11.6926
▁oppgradert	-11.6926
▁nubia	-11.6926
▁slovenia	-11.6926
▁risikere	-11.6926
▁tiberius	-11.6926
▁kvadratmeter	-11.6926
▁jesuittordenen	-11.6926
▁hopper	-11.6926
▁barndom	-11.6927
▁1798	-11.6927
▁1826	-11.6928
▁leiv	-11.6929
▁ligninger	-11.6929
▁dødd	-11.693
▁register	-11.6931
▁bernt	-11.6932
▁kraftstasjonen	-11.6932
▁sarah	-11.6932
▁nicolai	-11.6932
▁senantikken	-11.6932
▁gjenta	-11.6932
▁trofast	-11.6936
▁eksperter	-11.6937
▁sveise	-11.6938
▁klaver	-11.6938
▁bronsealder	-11.6939
elativitetsteori	-11.694
▁slukke	-11.6941
benz	-11.6942
katolske	-11.6943
▁normalspor	-11.6944
nel	-11.6945
▁frost	-11.6946
▁pesten	-11.6947
▁mottaker	-11.6949
▁uss	-11.6949
emi	-11.6949
▁skadelig	-11.6951
▁rytme	-11.6952
skrog	-11.6954
▁1988.	-11.6955
▁rail	-11.6956
▁gårds	-11.6958
sleder	-11.6958
▁kostbar	-11.6959
brenningsmotor	-11.6959
▁tony	-11.696
▁dante	-11.6961
nsk	-11.6961
▁bonn	-11.6962
▁ulempen	-11.6965
▁underarten	-11.6965
▁håndtering	-11.6965
▁avslått	-11.6966
▁skyve	-11.6967
▁ten	-11.6969
▁sammenfalle	-11.697
▁sirkulasjon	-11.6976
tegn	-11.6976
▁hed	-11.6977
ons	-11.6978
▁høgskole	-11.698
▁tendensen	-11.6981
▁slekts	-11.6981
▁mg	-11.6981
bærer	-11.6984
▁skallet	-11.6985
▁storfe	-11.6987
▁kro	-11.6988
skommisjonen	-11.6988
kning	-11.6988
▁123	-11.6989
▁eksempelet	-11.699
▁gh	-11.6991
elementer	-11.6994
vol	-11.6995
gon	-11.6995
gift	-11.6996
erna	-11.6997
more	-11.6999
▁rh	-11.6999
▁graf	-11.6999
▁kineser	-11.7003
rose	-11.7003
▁nøytralt	-11.7006
▁bekjent	-11.7007
▁søstre	-11.701
areal	-11.701
høymiddelalderen	-11.7013
▁columbus	-11.7013
▁technology	-11.7013
▁unnskyldning	-11.7013
▁vladimir	-11.7013
▁essex	-11.7013
▁koptisk	-11.7013
▁generalmajor	-11.7013
▁hviterussland	-11.7013
▁pinsebevegelsen	-11.7013
▁asfalt	-11.7014
ungen	-11.7015
▁splittelse	-11.7015
▁teleskop	-11.7016
▁lorenzo	-11.7017
▁tilgjengelighet	-11.7017
▁allah	-11.7019
▁giuseppe	-11.702
▁dick	-11.7021
▁katedral	-11.7021
▁videospill	-11.7021
▁antisemittisk	-11.7022
trær	-11.7024
▁hungersnød	-11.7026
▁strek	-11.7027
rapporten	-11.7028
▁sunn	-11.703
▁kursen	-11.703
ries	-11.703
▁verdiene	-11.703
▁helgeland	-11.703
▁deportasjonen	-11.7031
▁gordon	-11.7032
▁bispedømmet	-11.7032
▁rasistisk	-11.7032
▁works	-11.7033
▁joe	-11.7033
ches	-11.7035
▁esau	-11.7036
ane	-11.7036
▁intervensjon	-11.7038
▁borgermester	-11.7039
verden	-11.7039
▁idealer	-11.704
▁høvdinger	-11.7041
▁livius	-11.7041
▁evangelie	-11.7043
▁planck	-11.7044
▁print	-11.7046
▁ballett	-11.7046
▁leting	-11.7046
▁bm	-11.7047
▁kil	-11.7047
▁interesserte	-11.7048
ind	-11.705
nettverk	-11.705
alitet	-11.7051
▁biografisk	-11.7051
▁lastet	-11.7053
▁pastor	-11.7053
▁rustning	-11.7056
97	-11.7057
graver	-11.7059
aux	-11.7059
▁muskel	-11.706
▁ytter	-11.7064
▁106	-11.7064
▁lyng	-11.7067
▁måler	-11.7068
liknen	-11.707
▁650	-11.707
▁likeså	-11.7071
▁porter	-11.7072
ehr	-11.7073
▁eierskap	-11.7075
▁nærhet	-11.7075
▁guy	-11.7076
▁kirkegård	-11.7077
strup	-11.708
▁skjær	-11.708
▁zo	-11.7081
▁opprørsk	-11.7083
▁grunnlovs	-11.7083
▁deling	-11.7086
kraftverk	-11.7087
tom	-11.7088
vinne	-11.709
wer	-11.7091
skomiteen	-11.7091
▁tim	-11.7093
▁stikke	-11.7093
ittene	-11.7093
▁realitet	-11.7094
lim	-11.7094
iter	-11.7095
aktige	-11.7095
bragte	-11.7098
▁inngrep	-11.7098
▁kronprins	-11.7099
kobling	-11.71
▁imponert	-11.7101
▁individuelt	-11.7101
▁provisorisk	-11.7101
▁ekspandere	-11.7101
▁malaysia	-11.7101
▁valdres	-11.7101
▁tredve	-11.7101
retning	-11.7101
▁1795	-11.7103
▁spørre	-11.7104
ulykken	-11.7104
▁utdanne	-11.7105
▁bakkroppen	-11.7107
▁smalspor	-11.7107
skij	-11.7108
▁fragment	-11.7112
▁pirater	-11.7112
nga	-11.7112
fugler	-11.7113
▁nyhets	-11.7114
▁foton	-11.7114
▁forutsi	-11.7114
▁golden	-11.7114
▁globalt	-11.7116
▁omforme	-11.7116
▁met	-11.7117
▁kulminert	-11.712
▁eik	-11.7121
▁merker	-11.7122
▁fan	-11.7122
▁qui	-11.7123
▁gjenoppbygge	-11.7124
non	-11.7125
▁utrustet	-11.7125
▁fødte	-11.7127
▁rig	-11.7128
▁tettheten	-11.7129
▁ytringsfrihet	-11.713
▁subjektiv	-11.7131
▁erklæring	-11.7132
▁nøyaktighet	-11.7132
▁robot	-11.7134
▁økes	-11.7136
▁triumf	-11.7136
▁omdømme	-11.7137
▁innledning	-11.7138
dus	-11.7139
▁arvinger	-11.714
▁delegasjon	-11.7142
▁sykepleier	-11.7144
▁forpliktelser	-11.7144
▁forsto	-11.7145
▁whit	-11.7146
▁tilhørighet	-11.7149
▁batteriet	-11.7152
▁krystall	-11.7154
▁1807	-11.7155
▁bål	-11.7158
▁garn	-11.7159
▁most	-11.7162
▁baker	-11.7162
strukturer	-11.7164
papir	-11.7165
mir	-11.7167
▁ely	-11.7167
▁hagl	-11.717
ordning	-11.7171
▁misjonen	-11.7172
▁bitter	-11.7172
▁lufta	-11.7172
lagene	-11.7173
▁rand	-11.7175
▁sara	-11.7175
sanlegg	-11.7175
press	-11.7177
▁tilhørt	-11.7177
▁territorial	-11.7177
▁biter	-11.7179
▁okkupasjons	-11.7183
▁bent	-11.7185
▁vampyr	-11.7187
▁hedendom	-11.7188
eau	-11.7189
▁forespørsel	-11.7189
▁innendørs	-11.7189
▁montreal	-11.7189
▁facto	-11.7189
▁vergil	-11.7189
▁maksimum	-11.7189
▁melodien	-11.7189
▁rotasjons	-11.719
▁flint	-11.719
teknikker	-11.7191
▁dokumentar	-11.7191
▁påtalemyndighet	-11.7192
▁albania	-11.7192
▁1810	-11.7193
▁1804	-11.7193
▁regjerende	-11.7193
▁bestemmelsen	-11.7195
▁templene	-11.7195
▁rense	-11.7198
▁viklingene	-11.7198
▁forholde	-11.7198
▁gilgamesj	-11.7199
▁ekteparet	-11.7199
▁sad	-11.72
▁protestantene	-11.7201
magasinet	-11.7202
▁kir	-11.7203
utbredelsen	-11.7205
▁bjarne	-11.7206
▁elliptisk	-11.7207
ein	-11.7207
▁bremen	-11.7209
kapsel	-11.7212
▁graham	-11.7213
▁diagnose	-11.7213
▁vedta	-11.7214
▁proto	-11.7215
møtet	-11.7215
▁gevinst	-11.7216
▁diakon	-11.7218
▁modellene	-11.7218
▁mig	-11.7218
▁peke	-11.7219
hil	-11.7222
▁skiven	-11.7222
▁væpnet	-11.7224
brødrene	-11.7225
▁tvangs	-11.7226
▁forgifte	-11.7228
▁fordrevet	-11.7229
▁harris	-11.723
▁fosteret	-11.7231
▁utbredte	-11.7235
▁trolleybuss	-11.7237
turneringen	-11.7239
▁krake	-11.7239
▁regulerings	-11.7241
asjoner	-11.7245
▁kjemper	-11.7246
▁teolog	-11.7246
▁molekyler	-11.7248
▁term	-11.7249
utdannelse	-11.7249
▁laug	-11.725
▁volumet	-11.7252
▁kollaps	-11.7253
nin	-11.7255
▁bakterier	-11.7256
▁pur	-11.7257
,000	-11.7257
marsj	-11.7258
sida	-11.7258
▁salme	-11.726
tiv	-11.7261
▁104	-11.7262
apparat	-11.7263
dg	-11.7265
▁ulve	-11.7265
ular	-11.7266
▁hete	-11.7266
tilbud	-11.7267
▁offensiv	-11.7267
grå	-11.7267
inch	-11.7268
▁inndelingen	-11.7268
▁ola	-11.727
▁flaske	-11.727
▁tvilling	-11.7272
▁motorene	-11.7272
▁komposisjoner	-11.7272
▁fordele	-11.7275
nte	-11.7275
▁turtall	-11.7276
fredsstillende	-11.7276
▁batteridrev	-11.7277
interesser	-11.7278
▁connecticut	-11.7278
▁huntingdon	-11.7278
▁seksuelt	-11.7278
-13	-11.7278
▁raymond	-11.7278
▁dampturbin	-11.7278
▁heftig	-11.7278
▁steinalder	-11.7279
ovi	-11.7279
▁frikjent	-11.7279
▁anmode	-11.7279
▁charlie	-11.7279
▁hensiktsmessig	-11.7279
▁kontinental	-11.7279
▁halden	-11.728
▁meldingen	-11.728
61	-11.728
▁kommunistisk	-11.728
▁baptist	-11.728
▁rabbiner	-11.7281
▁bund	-11.7281
▁lesere	-11.7282
▁1066	-11.7282
steori	-11.7284
eck	-11.7284
▁sil	-11.7286
▁lagtinget	-11.7286
▁kommunistparti	-11.7287
▁ladet	-11.7287
▁ledetråd	-11.7287
▁halley	-11.7288
arkitektur	-11.7289
att	-11.7289
▁sandstein	-11.7289
▁korrespondanse	-11.729
▁sement	-11.729
57	-11.7292
▁kategorien	-11.7294
krets	-11.7296
▁nitrogen	-11.7296
▁christensen	-11.7297
▁angriper	-11.7303
▁fløt	-11.7304
▁stage	-11.7307
▁utfordrer	-11.7315
▁ankomsten	-11.7316
▁mao	-11.7317
una	-11.7318
▁bæres	-11.7319
▁nettsider	-11.7319
▁bemannet	-11.732
▁1400	-11.7322
sjefen	-11.7325
▁krater	-11.7327
▁kjøres	-11.7329
▁tromme	-11.7329
▁sti	-11.7332
▁populasjonen	-11.7332
▁varmen	-11.7333
korset	-11.7335
nar	-11.7337
▁groves	-11.7337
økonomisk	-11.734
▁off	-11.7341
▁trossamfunn	-11.7342
▁østlig	-11.7343
▁åker	-11.7343
▁vasa	-11.7343
▁busstrafikk	-11.7345
borough	-11.7345
phi	-11.7346
▁305	-11.7347
out	-11.7347
▁pet	-11.7348
▁till	-11.7348
▁søyle	-11.7349
▁overlevelse	-11.7349
▁sendingen	-11.735
▁tidsskrifter	-11.735
▁våt	-11.7358
cupen	-11.7359
ila	-11.7361
34	-11.7362
▁res	-11.7362
▁drøy	-11.7363
▁lit	-11.7364
▁allen	-11.7366
arte	-11.7366
▁standarder	-11.7368
▁barcelona	-11.7368
▁valdemar	-11.7368
▁vestromerriket	-11.7368
▁gottfried	-11.7368
▁substans	-11.7369
▁forurense	-11.7369
▁werner	-11.7369
▁algerie	-11.7369
▁vandre	-11.7371
▁guddommer	-11.7373
▁isolere	-11.7374
▁hur	-11.7374
▁ambassade	-11.7376
▁bore	-11.7378
burn	-11.7378
▁volt	-11.7378
▁friske	-11.7379
pis	-11.738
▁høyresiden	-11.7382
▁markeder	-11.7382
▁etappen	-11.7382
▁dum	-11.7383
▁litauisk	-11.7385
▁luftforsvaret	-11.7389
▁kvaliteter	-11.7392
▁konkluderer	-11.7395
▁reparasjon	-11.7395
uli	-11.7395
▁kjeve	-11.7396
▁eksploderte	-11.7396
▁flight	-11.74
▁glidebåt	-11.74
▁mekanisme	-11.7401
uri	-11.7401
▁hefte	-11.7405
tiltak	-11.7405
69	-11.7405
▁fitz	-11.7409
base	-11.7413
▁blomst	-11.7415
▁hat	-11.7417
lor	-11.7423
alis	-11.7425
98	-11.7426
lås	-11.7426
▁bistå	-11.7427
gau	-11.7428
▁gymnas	-11.7431
artikkel	-11.7431
▁reparasjoner	-11.7432
stater	-11.7434
▁sammensetningen	-11.7434
▁territoriet	-11.7434
▁gel	-11.7436
iene	-11.7439
▁akter	-11.7442
▁oppland	-11.7443
sammenheng	-11.7443
▁mekanismen	-11.7444
kontakt	-11.745
overføring	-11.7452
▁visdom	-11.7457
atet	-11.7458
▁marki	-11.7458
vard	-11.7459
▁hørsel	-11.7459
▁hønefoss	-11.7459
▁kalsium	-11.7459
▁krepsdyr	-11.7459
▁homogen	-11.746
▁skytevåpen	-11.746
▁talsmann	-11.746
vir	-11.746
▁stikk	-11.7461
▁medisiner	-11.7461
▁twh	-11.7463
stro	-11.7463
▁allmuen	-11.7463
▁nordligste	-11.7463
▁sagbruk	-11.7464
rå	-11.7465
▁departement	-11.7468
skriv	-11.7468
▁department	-11.747
▁teologisk	-11.7472
▁tida	-11.7475
rikeste	-11.7476
▁demonstranter	-11.7478
▁synder	-11.7478
▁blokkert	-11.748
▁misbruk	-11.7481
▁katolikk	-11.7483
ray	-11.7484
▁sound	-11.7484
▁utenfra	-11.7484
india	-11.7488
▁synspunkt	-11.7488
▁wander	-11.7488
▁skrå	-11.7489
▁fint	-11.7489
▁144	-11.749
▁jurist	-11.749
▁cos	-11.749
▁ride	-11.7491
▁folks	-11.7492
▁overvintre	-11.7494
litz	-11.7495
▁harvard	-11.7496
▁brukerne	-11.7497
lien	-11.7497
▁innlagt	-11.7497
ox	-11.7499
▁relikvie	-11.7501
▁petroleum	-11.7502
▁hvorpå	-11.7503
hunder	-11.7504
our	-11.7504
▁utslette	-11.7506
mord	-11.7506
▁omtrentlig	-11.7506
▁underskudd	-11.7511
▁tilslutt	-11.7514
▁taktisk	-11.7515
▁aktivist	-11.7516
▁arn	-11.7518
▁kriminal	-11.7519
▁klok	-11.7519
▁kontinent	-11.7521
▁spolen	-11.7523
yd	-11.7523
▁lenker	-11.7526
▁skred	-11.7526
▁dyrke	-11.7527
▁hemme	-11.7529
▁investering	-11.753
▁babylonsk	-11.753
økonomi	-11.7531
▁humle	-11.7533
regulering	-11.7535
usa	-11.7538
pet	-11.7538
▁rod	-11.7539
▁melke	-11.7539
gjør	-11.754
▁løfter	-11.7541
stell	-11.7542
▁amazonas	-11.7543
▁fergen	-11.7543
▁gyl	-11.7543
rd	-11.7545
▁krevd	-11.7545
▁korsika	-11.7545
▁auf	-11.7547
nal	-11.7549
▁colombia	-11.7551
▁sigøyner	-11.7551
▁nanjing	-11.7551
▁thrane	-11.7551
▁usynlig	-11.7551
▁buskerud	-11.7551
▁vogt	-11.7551
▁bodd	-11.7552
▁1784	-11.7553
kledning	-11.7553
▁kapellet	-11.7553
celle	-11.7554
▁sigurdsson	-11.7554
pingvin	-11.7554
▁[[	-11.7554
▁1817	-11.7554
▁stiftelse	-11.7556
flo	-11.7556
▁154	-11.7557
▁konsum	-11.7559
▁vitenskapsmenn	-11.7559
rio	-11.7559
▁olaf	-11.756
▁medarbeidere	-11.7563
▁forekomsten	-11.7564
▁spir	-11.7564
▁golf	-11.7567
▁kostnad	-11.7569
▁aksler	-11.7573
▁bevilgning	-11.7574
▁isotop	-11.7574
▁solberg	-11.7576
84	-11.7578
▁kartet	-11.7578
▁utvandring	-11.7579
kraften	-11.758
▁medregnet	-11.758
skjerm	-11.758
▁tobakk	-11.7581
studium	-11.7581
▁168	-11.7583
▁slovakisk	-11.7584
▁robin	-11.7584
▁nedslag	-11.7585
▁reformert	-11.7586
less	-11.7588
▁vital	-11.7588
▁østen	-11.7589
jet	-11.759
▁grevskapet	-11.7592
cu	-11.7593
▁undervise	-11.7594
▁tildele	-11.7595
lyd	-11.7598
▁fjerning	-11.7601
▁kloakk	-11.7602
▁billett	-11.7602
▁rekkefølgen	-11.7603
▁næringslivet	-11.7604
▁karen	-11.7604
via	-11.761
ax	-11.7613
▁fremgå	-11.7617
▁julian	-11.7617
sco	-11.7617
-14	-11.7618
▁typene	-11.7618
▁begå	-11.7621
▁kenneth	-11.7621
west	-11.7625
gjenstander	-11.7627
minne	-11.7627
stua	-11.7628
▁pant	-11.763
eu	-11.763
▁elskerinne	-11.7631
▁springer	-11.7631
▁smykke	-11.7632
▁berge	-11.7632
▁cop	-11.7633
▁æ	-11.7636
▁viten	-11.764
bj	-11.7642
▁bologna	-11.7644
▁humanitær	-11.7644
▁landflyktighet	-11.7644
▁bebodd	-11.7644
▁barentshavet	-11.7644
▁kristiansund	-11.7644
▁1536	-11.7646
▁1665	-11.7646
▁ugyldig	-11.7647
▁gw	-11.7647
▁1692	-11.7648
▁peel	-11.7648
▁forsynt	-11.7648
bladet	-11.7649
▁gjenoppbygging	-11.7649
66	-11.765
▁trygghet	-11.765
▁tru	-11.765
▁basalt	-11.765
▁skifer	-11.765
▁dol	-11.7651
vev	-11.7652
mønster	-11.7653
▁jesuitter	-11.7653
▁nasjonene	-11.7653
▁treholt	-11.7654
mc	-11.7655
▁spore	-11.7655
▁health	-11.7656
tl	-11.7657
▁skapes	-11.7657
▁nikolaj	-11.7657
▁tyngdepunkt	-11.7659
▁fiksjon	-11.766
44	-11.7661
▁komplette	-11.7661
▁signalet	-11.7664
▁gy	-11.7664
▁betongen	-11.7666
▁makter	-11.7669
tunnelen	-11.7671
▁neu	-11.7672
asi	-11.7672
beck	-11.7673
▁dekorasjon	-11.7674
▁broder	-11.7676
▁semitrailerbuss	-11.7677
▁forflytning	-11.7677
▁teamet	-11.7679
▁avgifter	-11.7679
▁action	-11.768
cap	-11.768
▁majoriteten	-11.7683
▁optimal	-11.7684
▁brutale	-11.7689
▁fasade	-11.7691
hara	-11.7694
kasse	-11.7699
▁trærne	-11.7699
timer	-11.7701
▁spin	-11.7701
▁30-	-11.7703
▁sentre	-11.7703
lak	-11.7705
kum	-11.7706
▁eike	-11.7707
▁landskaps	-11.7708
▁pante	-11.7708
anus	-11.7709
▁velferds	-11.771
▁alen	-11.7711
▁montere	-11.7711
▁prosessene	-11.7712
▁kronologi	-11.7713
das	-11.7715
▁280	-11.7715
▁flyte	-11.7715
▁elske	-11.7717
problemet	-11.7719
▁stramme	-11.7719
▁motstanderen	-11.772
▁watt	-11.7721
▁harmonisk	-11.7721
konkurransen	-11.7722
▁organismen	-11.7728
▁syklusen	-11.7728
▁sikkerheten	-11.773
36	-11.7731
sche	-11.7733
▁folkemengden	-11.7734
yan	-11.7734
cum	-11.7734
▁hellenistisk	-11.7734
tittelen	-11.7736
▁banene	-11.7736
▁svovel	-11.7737
▁afrodite	-11.7737
▁dionysos	-11.7737
▁dominikaner	-11.7737
▁empire	-11.7737
▁koordinere	-11.7737
▁michigan	-11.7737
▁rosenborg	-11.7738
▁kiel	-11.7738
▁tettsteder	-11.7738
▁kreativ	-11.7738
▁1640	-11.7739
▁murstein	-11.7742
▁selvsagt	-11.7742
▁plateselskap	-11.7742
▁germanere	-11.7742
dø	-11.7744
▁magne	-11.7744
tradisjon	-11.7744
▁sirkulær	-11.7746
▁weber	-11.7746
▁merkelig	-11.7748
▁hjel	-11.7751
røy	-11.7752
▁skriftene	-11.7752
py	-11.7753
▁que	-11.7755
skatten	-11.7755
▁font	-11.7757
▁musikal	-11.7759
▁føydalisme	-11.7759
▁chassis	-11.776
▁rensing	-11.7762
▁foretas	-11.7764
▁gravene	-11.7765
▁episke	-11.7766
▁humanist	-11.7767
▁understøtte	-11.7768
▁330	-11.7768
vg	-11.7768
new	-11.777
▁stilles	-11.777
▁motstå	-11.7775
klar	-11.7775
▁modern	-11.7776
▁ul	-11.7777
test	-11.7777
▁opplysningen	-11.7781
▁142	-11.7783
▁seng	-11.7783
album	-11.7784
▁ydmyke	-11.7786
▁niende	-11.7788
forbud	-11.7788
▁tsaren	-11.7788
effekter	-11.779
sform	-11.779
gade	-11.779
▁terra	-11.7791
produkt	-11.7793
▁nordamerikansk	-11.7794
▁roy	-11.7794
▁pit	-11.7795
▁arr	-11.7796
▁burke	-11.7796
organisasjonene	-11.7802
▁passert	-11.7803
sprekker	-11.7804
▁faglige	-11.7806
fronten	-11.781
▁vinen	-11.7811
ledning	-11.7811
▁presis	-11.7813
▁ai	-11.7813
▁skikkelser	-11.7813
wich	-11.7813
▁vandring	-11.7816
amin	-11.7818
▁dykker	-11.782
▁folketall	-11.782
▁lou	-11.7824
▁lovverk	-11.7825
▁leon	-11.7828
scenen	-11.783
▁anjou	-11.7831
▁britannica	-11.7831
▁conference	-11.7831
▁elegant	-11.7831
▁konsekvent	-11.7831
▁mercedes	-11.7831
▁moldova	-11.7831
▁prioritert	-11.7831
▁siemens	-11.7832
▁bnp	-11.7832
▁overvelde	-11.7832
▁fjordane	-11.7832
▁fornye	-11.7832
▁langdistanse	-11.7833
▁mosvik	-11.7833
▁1793	-11.7833
▁bir	-11.7834
▁taliban	-11.7835
▁levd	-11.7836
▁urin	-11.7837
▁åttende	-11.7839
styrt	-11.784
▁overlegen	-11.7841
▁aspekt	-11.7841
▁people	-11.7842
▁sporten	-11.7842
medlemmene	-11.7843
▁radioaktiv	-11.7843
.{	-11.7844
▁presteskapet	-11.7845
▁tilført	-11.7846
▁business	-11.7847
▁xiii	-11.7847
▁frimurer	-11.7847
▁innkjøp	-11.7848
▁festen	-11.7848
▁dynastisk	-11.7848
▁rec	-11.7849
▁inkvisisjonen	-11.785
▁trafikkert	-11.7851
▁open	-11.7852
▁kvadratisk	-11.7855
pal	-11.7855
prøver	-11.7856
▁oppfan	-11.7857
▁forvaltnings	-11.7857
▁djevelen	-11.786
▁romeo	-11.7863
▁ottar	-11.7863
▁sot	-11.7866
botn	-11.7866
▁domkirken	-11.7867
▁ot	-11.7871
alisme	-11.7871
▁nag	-11.7873
▁dåpen	-11.7874
ssjef	-11.7878
▁fremr	-11.7878
▁kraftsystem	-11.7878
▁gap	-11.788
smedlemmer	-11.788
▁alger	-11.7881
▁dh	-11.7882
▁missil	-11.7883
▁dance	-11.7885
▁kontinuitet	-11.7886
▁smelting	-11.7889
▁brenner	-11.7889
▁telle	-11.789
▁malere	-11.7893
▁reformene	-11.7893
▁velsignelse	-11.7893
apparatet	-11.7894
▁rasen	-11.7894
▁misforståelse	-11.7895
▁eli	-11.7896
kamper	-11.7896
regler	-11.7897
▁gjenstå	-11.79
▁titus	-11.79
▁heid	-11.7903
75	-11.7903
▁eiendommene	-11.7906
house	-11.7906
fylling	-11.7907
▁tf	-11.7915
▁boys	-11.7917
torget	-11.7918
▁delstater	-11.7919
▁sprer	-11.792
▁hesteomnibus	-11.7922
▁indian	-11.7923
▁tillagt	-11.7925
vennlige	-11.7925
nord	-11.7925
▁fønikisk	-11.7927
▁ralph	-11.7927
▁theodosius	-11.7927
▁transilvan	-11.7927
▁systematikk	-11.7927
▁kontant	-11.7927
▁minnesota	-11.7927
▁schutz	-11.7927
▁høvisk	-11.7927
▁orchestra	-11.7927
▁ji	-11.7927
▁øyvind	-11.7927
▁søppel	-11.7928
▁senterpartiet	-11.7928
▁fiskevær	-11.7928
besøksdato	-11.7928
fran	-11.7929
▁1648	-11.7929
▁centre	-11.7929
▁ungdommer	-11.793
▁1520	-11.7931
▁vekket	-11.7931
▁age	-11.7931
▁verdensrommet	-11.7931
nov	-11.7931
▁husholdning	-11.7932
star	-11.7932
▁yorkshire	-11.7932
tunnel	-11.7934
▁fløyte	-11.7934
▁økonom	-11.7934
▁lenke	-11.7935
▁bærekraftig	-11.7935
reglene	-11.7936
▁innsamling	-11.7939
▁berger	-11.7939
inne	-11.7942
▁fedre	-11.7944
▁sagaene	-11.7944
▁adels	-11.7944
▁islands	-11.7945
opptak	-11.7947
▁involverer	-11.7948
dato	-11.7948
▁kommandanten	-11.7948
▁systemene	-11.7948
kretsen	-11.7948
platen	-11.7952
ledd	-11.7952
tina	-11.7952
▁gris	-11.7953
▁drakt	-11.7954
blader	-11.7954
operasjoner	-11.7956
68	-11.7957
▁retter	-11.7958
bekken	-11.7958
▁190	-11.796
▁bøyd	-11.7962
endinger	-11.7963
produsent	-11.7963
▁avisa	-11.7965
▁drømmer	-11.7966
▁lovforslag	-11.7966
37	-11.7966
▁bryllupet	-11.7967
hak	-11.7969
kro	-11.7969
▁avsette	-11.797
▁variable	-11.7972
▁ingeniøren	-11.7974
fast	-11.7976
▁grupperinger	-11.7976
visning	-11.7976
▁framstilte	-11.7977
bibliotek	-11.7979
▁sco	-11.798
smetoden	-11.7981
▁liturgisk	-11.7982
▁menneskeliv	-11.7982
▁steinkjer	-11.7985
statene	-11.7985
▁alfabet	-11.7985
▁sjefen	-11.7986
▁overføringen	-11.7986
▁christie	-11.7987
atom	-11.7987
politisk	-11.7987
▁skoger	-11.7987
ille	-11.7988
hul	-11.7989
▁legat	-11.7989
▁vandret	-11.7991
stigning	-11.7992
▁kupp	-11.7993
▁hardanger	-11.7995
▁begjær	-11.7995
▁særdeleshe	-11.7995
▁skinnene	-11.7998
forsvarsminister	-11.7999
fond	-11.8
df	-11.8001
▁videreutvikling	-11.8002
▁maske	-11.8002
▁matthew	-11.8002
aslaks	-11.8006
▁kraftlinje	-11.8006
▁tal	-11.8007
kvalitet	-11.8007
▁overgangs	-11.801
▁ansettelse	-11.8011
▁bruksområde	-11.8012
▁vega	-11.8012
85	-11.8013
▁baltik	-11.8016
▁avgitt	-11.8017
▁gladiator	-11.8017
ello	-11.8019
▁streiken	-11.8019
▁jay	-11.802
▁differensial	-11.8023
▁forgjeves	-11.8023
▁toulouse	-11.8023
▁vesterålen	-11.8023
▁fiendskap	-11.8023
▁scenarie	-11.8023
▁kiev	-11.8023
▁gjenvinne	-11.8023
▁brasiliansk	-11.8023
▁knight	-11.8024
▁britoner	-11.8025
▁invadert	-11.8026
▁realistisk	-11.8026
▁dusin	-11.8028
▁kognitiv	-11.803
▁tuberkulose	-11.8031
cl	-11.8032
▁carlos	-11.8032
▁klo	-11.8035
ria	-11.8035
bla	-11.8036
▁høylande	-11.8037
fulle	-11.8039
▁flamsk	-11.8039
skutt	-11.8042
▁teorem	-11.8042
teatret	-11.8043
▁beliggenhet	-11.8045
▁kvern	-11.8045
▁marin	-11.8048
▁investorer	-11.8048
▁nedskrevet	-11.8049
▁rivalisere	-11.8049
▁124	-11.8052
▁setning	-11.8052
binding	-11.8052
▁innovasjon	-11.8055
▁sperre	-11.8058
▁1730	-11.8059
▁velstand	-11.806
chin	-11.806
▁cruise	-11.8061
brun	-11.8067
tekster	-11.8068
▁molekyl	-11.8069
▁2018.	-11.807
▁rederi	-11.8072
▁149	-11.8073
▁archer	-11.8074
▁forretningsmann	-11.8074
▁konserten	-11.8076
▁sivilisasjoner	-11.8076
gun	-11.8077
▁godset	-11.808
▁118	-11.8083
▁jakobs	-11.8086
▁1780	-11.8086
▁jylland	-11.8088
tyrkiske	-11.8089
▁fremsatt	-11.8089
▁tenkes	-11.809
▁beowulf	-11.8092
asj	-11.8093
vognene	-11.8095
▁slette	-11.8096
▁ekspansjonen	-11.8096
gri	-11.8097
[...]
